<unk>	0
<s>	0
</s>	0
▁|	-0
्य	-1
्त	-2
्र	-3
र्	-4
▁||	-5
||	-6
ान	-7
▁स	-8
▁प	-9
्व	-10
▁क	-11
▁म	-12
▁य	-13
्म	-14
▁त	-15
वि	-16
▁न	-17
म्	-18
ित	-19
▁च	-20
ात	-21
ाम	-22
ते	-23
न्त	-24
ति	-25
द्	-26
▁प्र	-27
ां	-28
▁द	-29
▁भ	-30
र्म	-31
स्त	-32
ज्	-33
वा	-34
▁1	-35
न्	-36
्च	-37
▁श	-38
क्त	-39
ष्	-40
ज्ञ	-41
ार	-42
द्ध	-43
▁2	-44
▁वि	-45
्ष	-46
स्य	-47
र्व	-48
श्च	-49
ृत	-50
ोऽ	-51
्या	-52
रा	-53
त्	-54
या	-55
क्ष	-56
ोग	-57
ात्म	-58
▁ब	-59
▁व	-60
प्र	-61
मा	-62
▁ह	-63
त्त	-64
नि	-65
ेव	-66
ेन	-67
त्र	-68
ान्	-69
ष्ट	-70
▁सर्व	-71
▁3	-72
ङ्	-73
▁अ	-74
▁ज	-75
्थ	-76
्वा	-77
ुर	-78
ेष	-79
ज्ञान	-80
ना	-81
स्म	-82
ैव	-83
▁पर	-84
▁कर्म	-85
ाप	-86
व्य	-87
सि	-88
▁ग	-89
द्र	-90
र्त	-91
ुन	-92
▁नि	-93
ाय	-94
्यते	-95
ाण	-96
ूत	-97
र्ज	-98
र्थ	-99
ानि	-100
ुद्ध	-101
भि	-102
ाव	-103
्रह	-104
▁4	-105
मु	-106
न्ति	-107
पि	-108
▁ध	-109
5||	-110
ेत	-111
न्य	-112
सा	-113
6||	-114
श्य	-115
स्थ	-116
ाह	-117
लो	-118
7||	-119
8||	-120
2||	-121
9||	-122
वाच	-123
न्ते	-124
्छ	-125
1||	-126
ान्त	-127
िय	-128
्यं	-129
सं	-130
▁उ	-131
0||	-132
च्छ	-133
▁श्र	-134
था	-135
3||	-136
्वि	-137
▁योग	-138
िं	-139
ुक्त	-140
मि	-141
ाश	-142
्रह्म	-143
पर	-144
▁मे	-145
दा	-146
्न	-147
4||	-148
ेषु	-149
ुष	-150
▁ए	-151
▁र	-152
▁मह	-153
कर्म	-154
ार्थ	-155
यं	-156
द्य	-157
ामि	-158
ुण	-159
लोक	-160
▁सम	-161
न्द्र	-162
यो	-163
हं	-164
िर	-165
स्मि	-166
ुख	-167
ानु	-168
▁त्व	-169
ता	-170
िन	-171
ेश	-172
र्जुन	-173
्यु	-174
▁ब्रह्म	-175
ञ्	-176
ष्ठ	-177
धि	-178
न्म	-179
ेद	-180
भूत	-181
ात्	-182
िता	-183
दि	-184
र्य	-185
्ये	-186
▁वा	-187
▁ते	-188
तो	-189
ेह	-190
▁इ	-191
ङ्ग	-192
वृत	-193
▁मन	-194
कृ	-195
भव	-196
▁सं	-197
▁मां	-198
कार	-199
ञ्ज	-200
▁स्व	-201
▁ज्ञान	-202
िया	-203
ित्य	-204
मन	-205
भाव	-206
त्त्व	-207
का	-208
दु	-209
ेऽ	-210
त्य	-211
त्व	-212
योग	-213
राज	-214
श्व	-215
▁एव	-216
▁हि	-217
▁पार्थ	-218
ास	-219
ोह	-220
द्व	-221
मान	-222
▁क्ष	-223
▁भूत	-224
दं	-225
्प	-226
ष्ण	-227
▁स्थ	-228
वृत्त	-229
▁बुद्ध	-230
णि	-231
नं	-232
र्ष	-233
तं	-234
कृत	-235
ानां	-236
▁श्री	-237
फल	-238
षु	-239
ुल	-240
स्व	-241
ानं	-242
▁यो	-243
सर्व	-244
▁उवाच	-245
गव	-246
▁5	-247
श्र	-248
च्यते	-249
ेय	-250
न्न	-251
ुरुष	-252
मं	-253
रं	-254
न्द	-255
र्श	-256
ष्य	-257
क्र	-258
भगव	-259
▁का	-260
▁भव	-261
वर्त	-262
▁लोक	-263
भगवानु	-264
भगवानुवाच	-265
▁श्रीभगवानुवाच	-266
क्	-267
णा	-268
ग्र	-269
भ्य	-270
▁तु	-271
▁दु	-272
ृष्ट	-273
▁देह	-274
▁राज	-275
ान्ति	-276
सी	-277
ूप	-278
ाणि	-279
ाति	-280
र्वा	-281
▁चैव	-282
मात्म	-283
स्थित	-284
ती	-285
दो	-286
यम	-287
ध्य	-288
▁कौ	-289
द्धि	-290
ोक्त	-291
▁माम	-292
▁पश्य	-293
▁पुरुष	-294
न्द्रिया	-295
मे	-296
ुह	-297
ोप	-298
▁ल	-299
र्ग	-300
▁यु	-301
कृति	-302
ात्त	-303
▁कृत	-304
▁देव	-305
▁पुन	-306
न्तेय	-307
बुद्ध	-308
ाद	-309
ुं	-310
ुप	-311
ूढ	-312
▁आ	-313
सुख	-314
क्ष्य	-315
▁यज्ञ	-316
▁कौन्तेय	-317
धा	-318
्ड	-319
म्भ	-320
ोति	-321
धर्म	-322
▁काम	-323
▁द्र	-324
स्त्र	-325
ात्मा	-326
▁12||	-327
▁अर्जुन	-328
मह	-329
मो	-330
री	-331
ृथ	-332
ृह	-333
नम्	-334
न्ध	-335
राग	-336
ारत	-337
िति	-338
▁भू	-339
ञ्जय	-340
ित्त	-341
्याग	-342
▁सुख	-343
युक्त	-344
▁11||	-345
▁13||	-346
▁भारत	-347
न्द्रिय	-348
ये	-349
िण	-350
ोध	-351
काम	-352
चार	-353
देव	-354
ुरु	-355
▁दि	-356
▁सा	-357
त्तम	-358
द्वि	-359
भक्त	-360
्यास	-361
▁4||	-362
▁8||	-363
▁9||	-364
▁10||	-365
दन	-366
रे	-367
लं	-368
सू	-369
च्च	-370
ञ्च	-371
बाह	-372
मेव	-373
र्ह	-374
▁तप	-375
▁ये	-376
स्तु	-377
ेत्र	-378
स्त्व	-379
्यक्त	-380
▁16||	-381
ग्	-382
ीत	-383
▁जग	-384
▁पु	-385
▁यत	-386
ाप्य	-387
ायते	-388
▁3||	-389
▁6||	-390
▁गुण	-391
▁पृथ	-392
स्तथा	-393
▁14||	-394
▁15||	-395
▁17||	-396
यि	-397
सम	-398
सु	-399
हम्	-400
▁कृ	-401
त्ति	-402
व्यय	-403
▁1||	-404
▁2||	-405
▁5||	-406
▁सम्	-407
ङ्कार	-408
▁18||	-409
ज्ञानं	-410
▁युक्त	-411
▁सत्त्व	-412
कं	-413
णं	-414
भू	-415
वे	-416
शु	-417
ुत	-418
ेण	-419
▁6	-420
चेत	-421
प्त	-422
विश	-423
▁चा	-424
ग्रह	-425
दर्श	-426
पश्य	-427
ान्य	-428
ृद्ध	-429
▁7||	-430
▁विद	-431
▁23||	-432
▁24||	-433
▁26||	-434
▁भक्त	-435
चि	-436
दे	-437
ीय	-438
ुम	-439
ृण	-440
ोष	-441
जान	-442
रम्	-443
▁कि	-444
▁वे	-445
▁परि	-446
▁यत्	-447
▁ह्य	-448
न्त्य	-449
ात्मन	-450
▁19||	-451
▁20||	-452
▁25||	-453
▁कर्त	-454
▁कर्मण	-455
▁प्रकृति	-456
▁सर्वभूत	-457
थं	-458
ब्	-459
यत	-460
रत	-461
वी	-462
प्य	-463
ल्प	-464
विध	-465
समु	-466
ितं	-467
मिदं	-468
यज्ञ	-469
ात्र	-470
ाम्य	-471
▁क्र	-472
▁तत्	-473
ज्ञात	-474
तिष्ठ	-475
▁21||	-476
▁22||	-477
▁27||	-478
यु	-479
शो	-480
ीन	-481
ैर	-482
ृति	-483
▁नर	-484
▁फल	-485
▁सद	-486
▁सि	-487
त्वा	-488
सङ्ग	-489
ाबाह	-490
▁त्र	-491
▁मया	-492
▁रूप	-493
▁वेद	-494
च्छति	-495
ष्ट्र	-496
▁प्रोक्त	-497
तोऽ	-498
▁ना	-499
▁बह	-500
▁मम	-501
▁यद	-502
▁सत	-503
▁हृ	-504
स्ति	-505
ाण्ड	-506
▁यदा	-507
▁विश	-508
▁28||	-509
▁29||	-510
▁तस्म	-511
▁वर्त	-512
वर्तते	-513
वृत्ति	-514
व्यक्त	-515
▁कृष्ण	-516
▁बुद्धि	-517
▁महाबाह	-518
कर	-519
की	-520
दम	-521
मी	-522
ले	-523
से	-524
ुव	-525
ेक	-526
ैत	-527
्स	-528
काश	-529
ज्य	-530
पित	-531
मृत	-532
▁धन	-533
▁मा	-534
सक्त	-535
ाश्व	-536
▁जना	-537
▁धार	-538
▁मद्	-539
▁मोह	-540
▁यथा	-541
▁व्य	-542
सिद्ध	-543
ित्यं	-544
हङ्कार	-545
▁त्वां	-546
▁दिव्य	-547
▁प्राण	-548
▁प्रिय	-549
ात्त्वि	-550
▁यान्ति	-551
एत	-552
पु	-553
भा	-554
शय	-555
शी	-556
िष	-557
ीष	-558
गुण	-559
ङ्ख	-560
प्न	-561
मां	-562
वान	-563
सङ्	-564
ृणु	-565
▁तं	-566
▁सह	-567
▁सु	-568
ग्नि	-569
द्भव	-570
न्नि	-571
यन्त	-572
र्वि	-573
र्षभ	-574
वान्	-575
श्चा	-576
स्ते	-577
ित्व	-578
्स्न	-579
▁गति	-580
▁द्व	-581
▁परं	-582
▁भरत	-583
▁भाव	-584
▁समा	-585
वृद्ध	-586
▁30||	-587
▁जन्म	-588
ब्रह्म	-589
▁नित्य	-590
▁सिद्ध	-591
▁विद्धि	-592
्यक्त्वा	-593
नु	-594
भु	-595
कम्	-596
केश	-597
गृह	-598
रति	-599
र्ध	-600
र्न	-601
समा	-602
सम्	-603
ाता	-604
ेति	-605
▁कु	-606
▁मो	-607
▁वै	-608
ाश्र	-609
ितम्	-610
ेषां	-611
▁कार	-612
▁किं	-613
▁मत्	-614
▁शरी	-615
▁स्म	-616
▁धर्म	-617
व्ययम्	-618
ात्मान	-619
▁पाण्ड	-620
▁विश्व	-621
▁शाश्व	-622
राष्ट्र	-623
▁भूतानि	-624
▁कर्माणि	-625
▁महाबाहो	-626
इन्द्रिया	-627
▁सात्त्वि	-628
जो	-629
नो	-630
पू	-631
प्	-632
मस	-633
ला	-634
सौ	-635
ुभ	-636
▁7	-637
णां	-638
दान	-639
परा	-640
भिज	-641
मुख	-642
मुप	-643
ित्	-644
▁शौ	-645
बन्ध	-646
मस्य	-647
मिति	-648
यम्य	-649
व्या	-650
ासते	-651
ास्य	-652
ेष्ट	-653
ोऽपि	-654
ोऽसि	-655
्युप	-656
▁तथा	-657
▁पाप	-658
▁भोग	-659
▁मयि	-660
▁विष	-661
दृष्ट	-662
▁31||	-663
▁कश्च	-664
▁प्रल	-665
▁भवति	-666
▁योगी	-667
वस्थित	-668
स्मिन्	-669
▁सञ्जय	-670
▁सर्वा	-671
दर्शनम्	-672
ध्यात्म	-673
▁तत्त्व	-674
ेन्द्रिय	-675
▁भरतर्षभ	-676
अन	-677
जा	-678
धु	-679
रि	-680
वं	-681
हम	-682
िप	-683
त्म	-684
त्स	-685
दाह	-686
भ्र	-687
मोह	-688
म्य	-689
यन्	-690
रूप	-691
वेद	-692
संस	-693
▁अन	-694
▁एत	-695
▁पू	-696
क्षर	-697
तत्र	-698
तेषु	-699
मेवा	-700
िंसा	-701
ीयते	-702
ुश्च	-703
ृतम्	-704
ेभ्य	-705
ेश्व	-706
▁इति	-707
▁ज्ञ	-708
▁ततो	-709
▁पित	-710
▁भूय	-711
▁मान	-712
▁शौच	-713
क्त्र	-714
चित्त	-715
त्प्र	-716
ांस्त	-717
ामहम्	-718
ुमर्ह	-719
्योति	-720
▁32||	-721
▁33||	-722
▁34||	-723
▁42||	-724
▁कुरु	-725
▁धृति	-726
▁परमं	-727
▁शृणु	-728
गच्छति	-729
ामस्मि	-730
ोऽस्मि	-731
▁योगिन	-732
▁श्रेय	-733
क्षेत्र	-734
मुच्यते	-735
वृत्तिं	-736
▁पश्यति	-737
▁श्रद्ध	-738
ज्ञात्वा	-739
पद	-740
ल्	-741
हि	-742
ीं	-743
ृज	-744
▁घ	-745
क्य	-746
क्ल	-747
ण्ड	-748
देश	-749
धान	-750
र्ण	-751
र्प	-752
वम्	-753
शेष	-754
श्न	-755
स्प	-756
ासा	-757
ाहं	-758
▁उप	-759
▁तत	-760
▁तथ	-761
▁लभ	-762
चेतस	-763
न्तप	-764
न्ना	-765
मिमं	-766
व्यं	-767
स्थं	-768
ात्य	-769
ुल्य	-770
ुह्य	-771
्याय	-772
्युत	-773
▁कुल	-774
▁चाप	-775
▁नैव	-776
▁येन	-777
क्रोध	-778
ग्राम	-779
निर्म	-780
मुक्त	-781
योगेन	-782
▁35||	-783
▁41||	-784
▁काङ्	-785
▁त्रि	-786
▁त्वं	-787
▁महार	-788
▁सङ्ग	-789
बुद्धि	-790
▁गतिम्	-791
▁पुत्र	-792
▁सर्वश	-793
ात्मानं	-794
▁कृत्वा	-795
▁ज्ञानं	-796
▁धनञ्जय	-797
▁नित्यं	-798
▁परन्तप	-799
▁पाण्डव	-800
श्चास्मि	-801
▁कृत्स्न	-802
▁प्राप्य	-803
्तराष्ट्र	-804
मद	-805
रज	-806
रो	-807
वस	-808
शा	-809
ाल	-810
ीम	-811
▁छ	-812
कुल	-813
तेष	-814
तेऽ	-815
त्थ	-816
दोष	-817
नाश	-818
परं	-819
राण	-820
लोभ	-821
वाद	-822
स्र	-823
ीति	-824
ुमि	-825
ेत्	-826
ेशव	-827
ैनं	-828
▁तद	-829
▁भज	-830
▁यज	-831
▁शु	-832
कर्त	-833
कृते	-834
जन्म	-835
र्दन	-836
विदो	-837
विवि	-838
ान्न	-839
ित्र	-840
▁ताम	-841
▁दैव	-842
▁निब	-843
▁मनो	-844
प्राण	-845
श्चैव	-846
ोऽन्य	-847
्येते	-848
▁37||	-849
▁38||	-850
▁39||	-851
▁केशव	-852
▁तत्र	-853
▁तस्य	-854
▁प्रस	-855
▁यत्र	-856
▁शत्र	-857
प्रकाश	-858
र्जवम्	-859
▁जायते	-860
▁दृष्ट	-861
▁प्रमा	-862
▁प्राप	-863
▁वैराग	-864
▁शान्त	-865
▁उच्यते	-866
▁वेत्ति	-867
▁स्वभाव	-868
क्ष्यामि	-869
धिगच्छति	-870
▁मद्भक्त	-871
▁विद्यते	-872
▁सर्वत्र	-873
▁सर्वभूतानां	-874
अभ	-875
अह	-876
एक	-877
कि	-878
के	-879
जं	-880
जन	-881
बह	-882
मय	-883
मव	-884
वद	-885
षण	-886
षी	-887
ून	-888
ृढ	-889
ृश	-890
गता	-891
च्य	-892
तत्	-893
तरं	-894
द्द	-895
द्भ	-896
नात	-897
परि	-898
पाप	-899
मपि	-900
माम	-901
मूढ	-902
यान	-903
योर	-904
लेन	-905
सुर	-906
सेन	-907
हार	-908
ाने	-909
ामह	-910
ेयं	-911
्वं	-912
▁तव	-913
▁षण	-914
आत्म	-915
ग्रं	-916
त्वं	-917
दासी	-918
द्या	-919
न्ये	-920
पराय	-921
याता	-922
श्वर	-923
ष्टो	-924
सम्म	-925
सुखं	-926
सूदन	-927
स्तप	-928
स्मा	-929
ाणां	-930
ामहं	-931
िष्ठ	-932
ीष्म	-933
ुष्य	-934
ुह्व	-935
ृत्य	-936
ैर्य	-937
ोऽयं	-938
▁एवं	-939
▁पुण	-940
▁ब्र	-941
▁मृत	-942
कर्मण	-943
कीर्त	-944
चारिण	-945
चार्य	-946
च्छ्र	-947
ज्यते	-948
त्याग	-949
द्वेष	-950
निश्च	-951
ष्यसि	-952
सर्वा	-953
ांश्च	-954
ोत्तम	-955
्मासा	-956
▁40||	-957
▁गच्छ	-958
▁परां	-959
▁याति	-960
च्छामि	-961
पद्यते	-962
प्नोति	-963
र्थेषु	-964
वृद्धे	-965
स्तस्य	-966
स्त्वं	-967
ुह्वति	-968
ोऽस्ति	-969
▁निश्च	-970
▁पृथक्	-971
▁युद्ध	-972
▁सर्वे	-973
▁स्थित	-974
मव्ययम्	-975
विविक्त	-976
ाम्यहम्	-977
▁कर्मफल	-978
▁भूत्वा	-979
▁युक्तो	-980
नावृत्ति	-981
वर्तन्ते	-982
▁क्षेत्र	-983
▁षण्मासा	-984
कल	-985
गत	-986
चर	-987
तप	-988
नम	-989
भय	-990
भो	-991
मू	-992
षा	-993
सह	-994
िद	-995
ौप	-996
▁।	-997
ज्ज	-998
णम्	-999
तथा	-1000
दार	-1001
ब्ध	-1002
मनु	-1003
मवा	-1004
माह	-1005
लम्	-1006
व्र	-1007
साद	-1008
ारं	-1009
िभि	-1010
ुम्	-1011
ेदं	-1012
ेवं	-1013
ैवा	-1014
ोऽन	-1015
्यो	-1016
▁कर	-1017
▁दम	-1018
▁नो	-1019
▁मत	-1020
▁रज	-1021
▁वच	-1022
▁शू	-1023
▁शो	-1024
▁सख	-1025
कल्प	-1026
ज्ञा	-1027
णाम्	-1028
तस्य	-1029
त्वम	-1030
द्यो	-1031
ध्ये	-1032
न्तं	-1033
न्तु	-1034
न्तो	-1035
वर्ज	-1036
वस्थ	-1037
सङ्घ	-1038
साम्	-1039
स्तथ	-1040
ीप्त	-1041
ैश्व	-1042
्रुव	-1043
▁कथं	-1044
▁दृढ	-1045
▁दोष	-1046
▁फलं	-1047
▁बलं	-1048
▁भवि	-1049
▁मूढ	-1050
▁योऽ	-1051
▁राग	-1052
▁स्प	-1053
▁स्य	-1054
▁हेत	-1055
असक्त	-1056
क्षिण	-1057
द्वार	-1058
धिष्ठ	-1059
न्द्व	-1060
माश्र	-1061
मिष्ट	-1062
यज्ञा	-1063
र्गुण	-1064
र्योग	-1065
व्यभि	-1066
श्यति	-1067
षीकेश	-1068
स्यसि	-1069
ित्वा	-1070
ोऽभिज	-1071
्विता	-1072
▁36||	-1073
▁43||	-1074
▁कल्प	-1075
▁जगत्	-1076
▁देहे	-1077
▁प्रप	-1078
▁यत्त	-1079
▁विदु	-1080
▁शौचं	-1081
▁सततं	-1082
▁सुखं	-1083
▁हन्त	-1084
आचार्य	-1085
क्रिया	-1086
धुसूदन	-1087
निग्रह	-1088
भवन्ति	-1089
ायन्ते	-1090
▁किञ्च	-1091
▁कुर्व	-1092
▁क्रोध	-1093
▁तिष्ठ	-1094
▁मामेव	-1095
▁युञ्ज	-1096
कर्माणि	-1097
ज्ज्ञान	-1098
र्ज्ञान	-1099
विशन्ति	-1100
ुमर्हसि	-1101
▁द्रष्ट	-1102
▁पुरुषं	-1103
▁मृत्यु	-1104
▁जुह्वति	-1105
▁बुद्धिर	-1106
▁सत्त्वं	-1107
▁सर्वस्य	-1108
▁सर्वाणि	-1109
▁प्रकृतिं	-1110
▁प्रतिष्ठ	-1111
▁प्रोक्तम	-1112
▁त्यक्त्वा	-1113
ांस्त्यक्त्वा	-1114
▁धार्तराष्ट्र	-1115
कु	-1116
खं	-1117
गा	-1118
जी	-1119
णो	-1120
नय	-1121
भं	-1122
मप	-1123
मृ	-1124
रह	-1125
लभ	-1126
षय	-1127
ीर	-1128
्ण	-1129
कथं	-1130
किं	-1131
क्च	-1132
चित	-1133
जरा	-1134
तिं	-1135
तेन	-1136
दीन	-1137
धार	-1138
ध्न	-1139
ध्म	-1140
नभि	-1141
ब्र	-1142
मयि	-1143
माप	-1144
मित	-1145
यतं	-1146
यति	-1147
यते	-1148
राट	-1149
संन	-1150
संश	-1151
सृज	-1152
सौभ	-1153
ादि	-1154
ापि	-1155
ावि	-1156
िनं	-1157
ृता	-1158
ेनं	-1159
ैति	-1160
ोपप	-1161
ोऽह	-1162
▁अथ	-1163
▁तम	-1164
▁ने	-1165
▁भा	-1166
▁यं	-1167
▁या	-1168
▁वी	-1169
▁शक	-1170
▁शा	-1171
▁हे	-1172
कल्म	-1173
काङ्	-1174
काले	-1175
क्षय	-1176
चक्ष	-1177
च्छा	-1178
देया	-1179
नाम्	-1180
निर्	-1181
निषु	-1182
न्दन	-1183
प्रण	-1184
मानस	-1185
येत्	-1186
र्जन	-1187
वेगा	-1188
स्थो	-1189
स्या	-1190
ाह्म	-1191
ियते	-1192
िष्ट	-1193
ुर्य	-1194
ेनैव	-1195
▁अहं	-1196
▁चान	-1197
▁चेत	-1198
▁तदा	-1199
▁तेऽ	-1200
▁नाश	-1201
▁निर	-1202
▁पवि	-1203
▁सदा	-1204
कृष्ण	-1205
द्योग	-1206
धृष्ट	-1207
नित्य	-1208
न्यथा	-1209
न्यया	-1210
पुत्र	-1211
प्रिय	-1212
व्रता	-1213
ष्यति	-1214
ान्नि	-1215
ान्वि	-1216
ेतानि	-1217
ेश्वर	-1218
ेष्वा	-1219
▁45||	-1220
▁46||	-1221
▁52||	-1222
▁53||	-1223
▁इत्य	-1224
▁दर्श	-1225
▁नियत	-1226
▁पृथि	-1227
▁मनसा	-1228
▁मन्य	-1229
▁रूपं	-1230
▁लोके	-1231
▁शङ्ख	-1232
▁संशय	-1233
त्तमम्	-1234
नार्दन	-1235
महिंसा	-1236
मृत्यु	-1237
राटश्च	-1238
वक्त्र	-1239
श्रद्ध	-1240
सौभद्र	-1241
िप्यते	-1242
िष्यते	-1243
ौपदेया	-1244
▁कर्ता	-1245
▁क्षमा	-1246
▁देहिन	-1247
▁देहेऽ	-1248
▁निर्म	-1249
▁पुराण	-1250
▁प्राह	-1251
▁मत्पर	-1252
▁महारथ	-1253
▁मित्र	-1254
▁मुक्त	-1255
▁वीर्य	-1256
▁स्थिर	-1257
▁हत्वा	-1258
दाहृतम्	-1259
पश्यामि	-1260
प्रकृति	-1261
मात्मवि	-1262
र्मध्ये	-1263
वार्जुन	-1264
स्तुल्य	-1265
ान्तिरा	-1266
▁कर्मणि	-1267
▁नियम्य	-1268
▁पर्युप	-1269
▁पवित्र	-1270
▁पितामह	-1271
▁भूतेषु	-1272
▁स्वर्ग	-1273
अध्यात्म	-1274
दृष्ट्वा	-1275
मात्मानं	-1276
▁जायन्ते	-1277
▁त्रिविध	-1278
▁द्वेष्ट	-1279
▁प्रपद्य	-1280
▁भक्त्या	-1281
▁विशन्ति	-1282
▁हृषीकेश	-1283
मृत्युजरा	-1284
ीन्द्रिया	-1285
ौपदेयाश्च	-1286
▁गच्छन्ति	-1287
▁विराटश्च	-1288
▁विवृद्धे	-1289
व्यभिचारिण	-1290
▁वक्ष्यामि	-1291
▁वीर्यवान्	-1292
▁क्षान्तिरा	-1293
▁पर्युपासते	-1294
▁पुरुषोत्तम	-1295
जन्ममृत्युजरा	-1296
मात्मविनिग्रह	-1297
▁द्रौपदेयाश्च	-1298
ंस	-1299
को	-1300
चल	-1301
णे	-1302
तत	-1303
नव	-1304
नी	-1305
नै	-1306
मम	-1307
लम	-1308
वश	-1309
स्	-1310
ैक	-1311
्ल	-1312
▁ख	-1313
करा	-1314
काय	-1315
केत	-1316
गतं	-1317
ग्न	-1318
जनं	-1319
जम्	-1320
जयं	-1321
तां	-1322
तेज	-1323
दैव	-1324
धम्	-1325
नां	-1326
पते	-1327
ब्द	-1328
भिर	-1329
भोग	-1330
मती	-1331
मनो	-1332
मया	-1333
महम	-1334
माद	-1335
मेय	-1336
यम्	-1337
याण	-1338
याय	-1339
रणं	-1340
रीर	-1341
र्द	-1342
ल्ब	-1343
शुभ	-1344
ष्व	-1345
सां	-1346
सीद	-1347
सेव	-1348
हित	-1349
ासि	-1350
ीवं	-1351
ुति	-1352
ुते	-1353
ैते	-1354
्यज	-1355
्वल	-1356
▁कू	-1357
▁गत	-1358
▁घो	-1359
▁चि	-1360
▁जन	-1361
▁जी	-1362
▁पौ	-1363
▁बल	-1364
▁बी	-1365
▁मु	-1366
▁सौ	-1367
कुरु	-1368
कृतं	-1369
खदोष	-1370
गच्छ	-1371
तस्म	-1372
त्ते	-1373
द्यत	-1374
द्रम	-1375
द्रा	-1376
धिदु	-1377
न्मे	-1378
भावो	-1379
भूतं	-1380
मन्त	-1381
मादि	-1382
वसाय	-1383
विधा	-1384
व्यथ	-1385
शरीर	-1386
शेषत	-1387
सेवि	-1388
स्तम	-1389
ानेन	-1390
ान्प	-1391
ान्म	-1392
ापान	-1393
ाश्च	-1394
ासनं	-1395
ासुर	-1396
िमान	-1397
ुभयो	-1398
ुरुन	-1399
ेऽपि	-1400
ेऽहं	-1401
ैरपि	-1402
ोऽहं	-1403
्यमन	-1404
्वाध	-1405
▁काय	-1406
▁किम	-1407
▁जगत	-1408
▁जित	-1409
▁तमस	-1410
▁धृत	-1411
▁नरा	-1412
▁परम	-1413
▁पुर	-1414
▁मही	-1415
▁यज्	-1416
▁यया	-1417
क्षरं	-1418
च्युत	-1419
जायते	-1420
त्ताम	-1421
द्रोह	-1422
धीयते	-1423
नान्त	-1424
पूर्व	-1425
प्रभव	-1426
प्रमा	-1427
भिजात	-1428
भिजान	-1429
मदम्भ	-1430
मवाप्	-1431
मानयो	-1432
ल्लोक	-1433
वन्ति	-1434
शान्त	-1435
शेषेण	-1436
संयोग	-1437
संसदि	-1438
संसार	-1439
सम्भव	-1440
स्त्य	-1441
ादिषु	-1442
ायनम्	-1443
ारम्भ	-1444
िरनभि	-1445
ीतानि	-1446
्यागी	-1447
▁44||	-1448
▁51||	-1449
▁अमान	-1450
▁काले	-1451
▁तत्व	-1452
▁तेषु	-1453
▁दम्भ	-1454
▁दर्प	-1455
▁दुर्	-1456
▁दुष्	-1457
▁नानु	-1458
▁पञ्च	-1459
▁प्रण	-1460
▁यच्च	-1461
▁यन्म	-1462
▁युयु	-1463
▁योगं	-1464
▁लब्ध	-1465
▁विगत	-1466
▁विनि	-1467
▁विपर	-1468
▁शक्न	-1469
▁शरीर	-1470
▁सनात	-1471
▁सन्न	-1472
▁समुप	-1473
▁सम्प	-1474
अहिंसा	-1475
कर्मफल	-1476
कर्माण	-1477
ग्रामं	-1478
ज्ञाना	-1479
त्तिषु	-1480
दारगृह	-1481
नित्यं	-1482
निश्चय	-1483
परायणा	-1484
प्रयाण	-1485
बुद्धय	-1486
भूतेषु	-1487
मात्मन	-1488
युक्ता	-1489
श्चर्य	-1490
ष्टोपप	-1491
ष्वङ्ग	-1492
सम्मूढ	-1493
ात्त्व	-1494
ात्मना	-1495
ात्मनि	-1496
ोपासनं	-1497
▁कुरुन	-1498
▁क्षति	-1499
▁चाप्य	-1500
▁ज्ञेय	-1501
▁तस्मा	-1502
▁तेषां	-1503
▁पूर्व	-1504
▁प्रति	-1505
▁प्रभव	-1506
▁भोक्त	-1507
▁महर्ष	-1508
▁मामुप	-1509
▁यदतोऽ	-1510
▁विन्द	-1511
▁विस्त	-1512
▁शरीरे	-1513
▁सत्यं	-1514
▁स्वजन	-1515
अहङ्कार	-1516
खदोषानु	-1517
चिन्त्य	-1518
चेतसाम्	-1519
त्वमरति	-1520
देशसेवि	-1521
समुद्भव	-1522
स्त्याग	-1523
ापमानयो	-1524
▁उपासते	-1525
▁कल्पते	-1526
▁चानन्य	-1527
▁ज्ञेयं	-1528
▁ज्योति	-1529
▁त्यक्त	-1530
▁प्राप्	-1531
▁भक्तिर	-1532
▁राज्यं	-1533
▁विद्या	-1534
▁शस्त्र	-1535
▁शान्ति	-1536
▁समृद्ध	-1537
▁सम्प्र	-1538
चित्तत्व	-1539
त्तामसमु	-1540
प्रकृतिं	-1541
मिष्टानि	-1542
र्ज्योति	-1543
व्याधिदु	-1544
▁अव्यक्त	-1545
▁तत्त्वत	-1546
▁प्रकृते	-1547
▁प्रज्ञा	-1548
▁मधुसूदन	-1549
▁वर्तन्त	-1550
▁सर्वेषु	-1551
▁सिद्धिं	-1552
▁स्थैर्य	-1553
एतज्ज्ञान	-1554
ज्ञानार्थ	-1555
नित्यत्वं	-1556
प्राणापान	-1557
मदम्भित्व	-1558
र्जनसंसदि	-1559
ुमिच्छामि	-1560
▁अमानित्व	-1561
▁ज्ञात्वा	-1562
▁द्वेष्टि	-1563
▁निवर्तते	-1564
▁रागद्वेष	-1565
▁सर्वमिदं	-1566
असक्तिरनभि	-1567
न्द्रियाणि	-1568
्यमनहङ्कार	-1569
▁कुरुनन्दन	-1570
दारगृहादिषु	-1571
व्यभिचारिणी	-1572
▁यदतोऽन्यथा	-1573
▁समचित्तत्व	-1574
▁सर्वभूतेषु	-1575
आचार्योपासनं	-1576
ष्टोपपत्तिषु	-1577
▁चानन्ययोगेन	-1578
अध्यात्मज्ञान	-1579
एतज्ज्ञानमिति	-1580
खदोषानुदर्शनम्	-1581
देशसेवित्वमरति	-1582
▁तत्वज्ञानार्थ	-1583
इन्द्रियार्थेषु	-1584
मदम्भित्वमहिंसा	-1585
▁प्रोक्तमज्ञानं	-1586
असक्तिरनभिष्वङ्ग	-1587
▁वैराग्यमनहङ्कार	-1588
अथ	-1589
अध	-1590
अस	-1591
उप	-1592
एव	-1593
कथ	-1594
कै	-1595
कौ	-1596
जय	-1597
डा	-1598
तु	-1599
दय	-1600
धू	-1601
बल	-1602
मल	-1603
रण	-1604
रथ	-1605
शं	-1606
सो	-1607
हर	-1608
हृ	-1609
िख	-1610
ीद	-1611
ूर	-1612
ैब	-1613
ोन	-1614
ौष	-1615
करो	-1616
ङ्म	-1617
चाल	-1618
चिर	-1619
तम्	-1620
दाच	-1621
द्ग	-1622
धाय	-1623
नाद	-1624
निष	-1625
परे	-1626
भृत	-1627
मम्	-1628
माण	-1629
मिव	-1630
म्ब	-1631
यदि	-1632
याम	-1633
येन	-1634
रन्	-1635
रहं	-1636
राय	-1637
रुष	-1638
र्भ	-1639
वास	-1640
विष	-1641
शब्	-1642
ष्प	-1643
सञ्	-1644
हाय	-1645
ातु	-1646
ारभ	-1647
ारम	-1648
ितो	-1649
ीनि	-1650
ीमा	-1651
ुडा	-1652
ुधा	-1653
ुपद	-1654
ुरि	-1655
ृहा	-1656
ेऽप	-1657
ैरु	-1658
ोमह	-1659
ोषि	-1660
्यै	-1661
▁अह	-1662
▁इह	-1663
▁कल	-1664
▁भु	-1665
▁मय	-1666
▁यथ	-1667
▁रस	-1668
▁रु	-1669
▁वद	-1670
▁सू	-1671
▁सो	-1672
एकया	-1673
कृत्	-1674
क्षं	-1675
क्षु	-1676
क्षे	-1677
खसुख	-1678
गन्ध	-1679
गुणा	-1680
ग्वि	-1681
ताम्	-1682
त्यम	-1683
दध्म	-1684
दस्य	-1685
देवा	-1686
द्भि	-1687
धूमो	-1688
ध्यं	-1689
न्तव	-1690
परित	-1691
पश्च	-1692
प्तं	-1693
प्रे	-1694
प्सु	-1695
भावे	-1696
मान्	-1697
यक्ष	-1698
याति	-1699
रम्भ	-1700
र्णं	-1701
र्ता	-1702
र्थे	-1703
श्या	-1704
ष्ठा	-1705
संशय	-1706
स्ती	-1707
स्ये	-1708
स्वि	-1709
हमहं	-1710
हिता	-1711
ांसि	-1712
ाकरा	-1713
ातुं	-1714
ानपि	-1715
ान्व	-1716
ामपि	-1717
ामेव	-1718
िन्न	-1719
ियोग	-1720
ीणां	-1721
ीनां	-1722
ुतम्	-1723
ुप्त	-1724
ुरेव	-1725
ृप्त	-1726
ेत्य	-1727
ेष्ठ	-1728
ेष्व	-1729
ैर्ज	-1730
ोऽयम	-1731
्यभि	-1732
्येन	-1733
▁काल	-1734
▁कूट	-1735
▁केव	-1736
▁गती	-1737
▁तज्	-1738
▁तद्	-1739
▁तपो	-1740
▁तेन	-1741
▁नान	-1742
▁नोप	-1743
▁पदं	-1744
▁परा	-1745
▁पाव	-1746
▁मता	-1747
▁मते	-1748
▁मुख	-1749
▁मोघ	-1750
▁यदि	-1751
▁याद	-1752
▁लोभ	-1753
▁विन	-1754
▁शिख	-1755
▁श्व	-1756
▁संश	-1757
▁सङ्	-1758
▁सदृ	-1759
▁समं	-1760
▁साम	-1761
▁स्त	-1762
▁स्र	-1763
▁ह्र	-1764
अग्नि	-1765
तुल्य	-1766
तोमुख	-1767
तोष्ण	-1768
त्स्य	-1769
दादीन	-1770
दिष्य	-1771
द्विज	-1772
धिदैव	-1773
ध्यते	-1774
ध्यान	-1775
नेत्र	-1776
न्नपि	-1777
पार्थ	-1778
पुरुष	-1779
प्रति	-1780
प्राप	-1781
ब्रवी	-1782
भीष्म	-1783
भूयाय	-1784
मनन्त	-1785
मावृत	-1786
मित्त	-1787
मैश्व	-1788
यन्तो	-1789
रात्र	-1790
ल्बिष	-1791
वानसि	-1792
वाप्य	-1793
शुक्ल	-1794
सन्नि	-1795
सुखदु	-1796
सुदेव	-1797
स्पृह	-1798
ात्रि	-1799
ान्सम	-1800
ित्या	-1801
िनाम्	-1802
ियज्ञ	-1803
ुष्या	-1804
ेष्टा	-1805
ैर्वि	-1806
ोऽप्र	-1807
्यश्च	-1808
्यासन	-1809
▁47||	-1810
▁अनेक	-1811
▁उत्त	-1812
▁कामं	-1813
▁कालं	-1814
▁गुडा	-1815
▁चान्	-1816
▁त्यज	-1817
▁त्रै	-1818
▁दानं	-1819
▁दोषं	-1820
▁द्रो	-1821
▁धारय	-1822
▁नष्ट	-1823
▁नियो	-1824
▁निरा	-1825
▁पण्ड	-1826
▁परम्	-1827
▁प्रव	-1828
▁फलम्	-1829
▁भीमा	-1830
▁मच्च	-1831
▁मत्त	-1832
▁मूढा	-1833
▁राजा	-1834
▁रोमह	-1835
▁लभते	-1836
▁लोका	-1837
▁वापि	-1838
▁वायु	-1839
▁विषय	-1840
▁शक्य	-1841
▁शूरा	-1842
▁श्रो	-1843
▁समदु	-1844
▁सम्य	-1845
▁स्या	-1846
कल्मषा	-1847
काग्रं	-1848
कृष्णे	-1849
ग्रहम्	-1850
तामहम्	-1851
द्रमसं	-1852
द्रष्ट	-1853
निर्वा	-1854
न्तश्च	-1855
न्यस्य	-1856
प्यस्य	-1857
मन्यया	-1858
योनिषु	-1859
रायणम्	-1860
र्योगी	-1861
वतिष्ठ	-1862
विभक्त	-1863
विवर्ज	-1864
विष्टो	-1865
शस्त्र	-1866
श्यामि	-1867
श्वत्थ	-1868
ष्यामि	-1869
सङ्गेन	-1870
सञ्ज्ञ	-1871
सेनयोर	-1872
स्तत्त	-1873
स्तुति	-1874
स्थानि	-1875
स्थितो	-1876
ात्मैव	-1877
ान्स्व	-1878
ास्यसि	-1879
ेऽवस्थ	-1880
▁अनन्त	-1881
▁उत्तम	-1882
▁कश्चन	-1883
▁क्रिय	-1884
▁गुह्य	-1885
▁तद्वि	-1886
▁त्याग	-1887
▁दर्पं	-1888
▁दास्य	-1889
▁दीप्त	-1890
▁दैवीम	-1891
▁नान्य	-1892
▁नाशाय	-1893
▁परमां	-1894
▁पुण्य	-1895
▁प्रवद	-1896
▁भक्ता	-1897
▁भीष्म	-1898
▁भूतान	-1899
▁मत्वा	-1900
▁यज्ञं	-1901
▁यात्य	-1902
▁येषां	-1903
▁योगेन	-1904
▁योद्ध	-1905
▁राजसं	-1906
▁लोकान	-1907
▁वाक्य	-1908
▁विचाल	-1909
▁विसृज	-1910
▁व्यास	-1911
▁शक्नो	-1912
▁शत्रु	-1913
▁शुक्ल	-1914
▁सखेति	-1915
▁सङ्गं	-1916
▁समन्त	-1917
▁सहस्र	-1918
▁साङ्ख	-1919
▁स्याम	-1920
एवमुक्त	-1921
कुलक्षय	-1922
कृत्स्न	-1923
ज्ञानवि	-1924
त्तिष्ठ	-1925
निर्ममो	-1926
प्रयाता	-1927
प्राप्य	-1928
बुद्धिर	-1929
भिधीयते	-1930
संशुद्ध	-1931
सिद्धिं	-1932
स्त्रवि	-1933
स्त्वां	-1934
स्मृत्य	-1935
ात्प्रण	-1936
ेश्वरम्	-1937
ोऽर्जुन	-1938
▁कार्यं	-1939
▁क्रोधं	-1940
▁जन्मनि	-1941
▁दक्षिण	-1942
▁द्रुपद	-1943
▁पुत्रा	-1944
▁पृथिवी	-1945
▁प्रकाश	-1946
▁प्रलयं	-1947
▁मन्यते	-1948
▁महारथा	-1949
▁यजन्ते	-1950
▁रात्रि	-1951
▁वक्त्र	-1952
▁संयम्य	-1953
▁सम्पदं	-1954
▁सुखानि	-1955
▁स्पृहा	-1956
▁हन्तुं	-1957
▁ह्येते	-1958
तेऽर्जुन	-1959
दादीन्वि	-1960
भिजातस्य	-1961
भिजानाति	-1962
मुत्तमम्	-1963
योगयुक्त	-1964
वृत्तानि	-1965
ाश्रित्य	-1966
्वाध्याय	-1967
▁कर्मणाम	-1968
▁गुडाकेश	-1969
▁धर्मस्य	-1970
▁पश्यामि	-1971
▁प्रयाता	-1972
▁प्रव्यथ	-1973
▁ब्रह्मण	-1974
▁ब्राह्म	-1975
▁मनुष्या	-1976
▁यतचित्त	-1977
▁रोमहर्ष	-1978
▁विशुद्ध	-1979
▁शान्तिर	-1980
▁शाश्वते	-1981
परित्यागी	-1982
मावृत्तिं	-1983
र्जनार्दन	-1984
वस्थितान्	-1985
व्यवस्थित	-1986
ष्ट्राकरा	-1987
सर्वारम्भ	-1988
ेऽवस्थिता	-1989
ोऽभिजायते	-1990
▁द्वन्द्व	-1991
▁पश्यन्ति	-1992
▁प्रवृत्त	-1993
▁बुद्ध्या	-1994
▁मच्चित्त	-1995
इन्द्रियाण	-1996
चितुमर्हसि	-1997
तोष्णसुखदु	-1998
प्रयाणकाले	-1999
मवाप्स्यसि	-2000
र्ज्योतिरह	-2001
सेनयोरुभयो	-2002
▁तत्तामसमु	-2003
▁प्रवृत्ति	-2004
▁रागद्वेषौ	-2005
▁सर्वद्वार	-2006
▁स्वभावजम्	-2007
कुलक्षयकृतं	-2008
शब्दादीन्वि	-2009
शुक्लकृष्णे	-2010
▁उत्तरायणम्	-2011
▁चान्द्रमसं	-2012
▁दृष्टवानसि	-2013
▁प्रवृत्तिं	-2014
▁ब्रह्मविदो	-2015
▁विश्वतोमुख	-2016
▁समृद्धवेगा	-2017
▁सर्वभूतानि	-2018
▁सात्त्विकं	-2019
मन्ययावर्तते	-2020
ात्मनात्मानं	-2021
▁त्वनावृत्ति	-2022
▁दक्षिणायनम्	-2023
▁देहेऽस्मिन्	-2024
▁प्रतिष्ठिता	-2025
▁प्रपद्यन्ते	-2026
▁रात्रिस्तथा	-2027
▁ज्योतिर्योगी	-2028
▁ब्रह्मनिर्वा	-2029
▁यात्यनावृत्ति	-2030
अग्निर्ज्योतिरह	-2031
आढ	-2032
खम	-2033
खि	-2034
गम	-2035
गर	-2036
गे	-2037
गो	-2038
तथ	-2039
दह	-2040
धव	-2041
धी	-2042
पथ	-2043
पा	-2044
पै	-2045
पो	-2046
रु	-2047
लि	-2048
शम	-2049
षत	-2050
षि	-2051
हत	-2052
ीट	-2053
।।	-2054
अनि	-2055
असौ	-2056
इदम	-2057
एवं	-2058
काल	-2059
घोष	-2060
घ्र	-2061
चरा	-2062
चाप	-2063
जित	-2064
तमं	-2065
दनु	-2066
दया	-2067
देह	-2068
धाम	-2069
धिक	-2070
नान	-2071
नाम	-2072
नाव	-2073
परो	-2074
पेत	-2075
पैश	-2076
बहू	-2077
भाग	-2078
भूय	-2079
भोज	-2080
मचल	-2081
मणि	-2082
मद्	-2083
मनस	-2084
मना	-2085
मयं	-2086
मस्	-2087
महं	-2088
माल	-2089
मिद	-2090
मेत	-2091
रुत	-2092
रेण	-2093
लोल	-2094
वेश	-2095
शिर	-2096
शुच	-2097
शोऽ	-2098
साम	-2099
सीत	-2100
सूय	-2101
हृत	-2102
हेत	-2103
ापय	-2104
ामी	-2105
ायं	-2106
ायु	-2107
ारद	-2108
ारा	-2109
ाशि	-2110
िर्	-2111
ीतं	-2112
ीरं	-2113
ुला	-2114
ुहृ	-2115
ृशं	-2116
ेवा	-2117
ैतद	-2118
ैर्	-2119
ोवि	-2120
ौजा	-2121
्मे	-2122
्वे	-2123
▁इत	-2124
▁जा	-2125
▁जि	-2126
▁दश	-2127
▁नम	-2128
▁नु	-2129
▁नै	-2130
▁पत	-2131
▁बो	-2132
▁मद	-2133
▁मू	-2134
▁लघ	-2135
▁ला	-2136
▁शम	-2137
▁हत	-2138
▁।।	-2139
ंसते	-2140
अनेक	-2141
अभयं	-2142
आढ्य	-2143
कस्य	-2144
कामा	-2145
केचि	-2146
केषु	-2147
क्चै	-2148
क्यं	-2149
क्षि	-2150
खेषु	-2151
ग्नौ	-2152
ङ्गव	-2153
ङ्गै	-2154
चरम्	-2155
चित्	-2156
चेता	-2157
च्चै	-2158
जित्	-2159
ज्यं	-2160
ञ्चन	-2161
ण्डी	-2162
तानि	-2163
तेजो	-2164
त्रा	-2165
दन्य	-2166
दमपि	-2167
दानं	-2168
दुर्	-2169
धानो	-2170
नकुल	-2171
नन्त	-2172
नवान	-2173
नायं	-2174
न्तर	-2175
न्ती	-2176
न्नं	-2177
पाने	-2178
पुरु	-2179
प्रद	-2180
बध्न	-2181
भावं	-2182
भुतं	-2183
भूतय	-2184
भूति	-2185
मजान	-2186
मतीव	-2187
मय्य	-2188
मश्न	-2189
मश्र	-2190
मानम	-2191
मुखा	-2192
मूलम	-2193
मेनं	-2194
मेवं	-2195
यच्च	-2196
यमेव	-2197
याम्	-2198
रथम्	-2199
रूपं	-2200
र्मु	-2201
लानि	-2202
लोके	-2203
वस्व	-2204
वाक्	-2205
विता	-2206
वित्	-2207
विमु	-2208
वेदं	-2209
शश्च	-2210
श्चि	-2211
श्रय	-2212
ष्णु	-2213
सन्द	-2214
सम्भ	-2215
सर्ग	-2216
सुखी	-2217
सेवी	-2218
हर्ष	-2219
हितं	-2220
हिते	-2221
ाञ्ज	-2222
ात्स	-2223
ान्ध	-2224
ापरे	-2225
ामृत	-2226
ायाम	-2227
ायिन	-2228
ारूढ	-2229
ाशुभ	-2230
ाश्म	-2231
ितान	-2232
िरीट	-2233
िविध	-2234
ीयां	-2235
ुकाम	-2236
ुत्र	-2237
ुनम्	-2238
ुपदो	-2239
ुरहं	-2240
ूनां	-2241
ृज्य	-2242
ृण्व	-2243
ृशम्	-2244
ेत्त	-2245
ेनाव	-2246
ेषाम	-2247
ोग्र	-2248
ोपहत	-2249
्येक	-2250
्वेन	-2251
▁अमी	-2252
▁इदं	-2253
▁इदम	-2254
▁एवा	-2255
▁कवि	-2256
▁कुत	-2257
▁केन	-2258
▁क्ल	-2259
▁गुर	-2260
▁चतु	-2261
▁जीव	-2262
▁तेज	-2263
▁धात	-2264
▁धाम	-2265
▁धीम	-2266
▁निह	-2267
▁बहव	-2268
▁बहु	-2269
▁बीज	-2270
▁भगव	-2271
▁भयं	-2272
▁भया	-2273
▁भ्र	-2274
▁मेऽ	-2275
▁याव	-2276
▁योध	-2277
▁रणे	-2278
▁रता	-2279
▁वाच	-2280
▁वाद	-2281
▁शुच	-2282
▁शैब	-2283
▁संन	-2284
▁सतत	-2285
▁सदस	-2286
▁साध	-2287
▁सुर	-2288
उदासी	-2289
कार्य	-2290
काश्य	-2291
किश्च	-2292
क्रिय	-2293
क्षये	-2294
क्षरम	-2295
गाण्ड	-2296
गृहीत	-2297
गृह्ण	-2298
ग्राह	-2299
ङ्गते	-2300
चिन्त	-2301
च्छसि	-2302
ज्जते	-2303
तमस्य	-2304
तीत्य	-2305
तृप्त	-2306
तेषां	-2307
तेष्व	-2308
तेऽपि	-2309
त्कृत	-2310
त्तमा	-2311
त्वैत	-2312
दध्मु	-2313
दानतप	-2314
दित्य	-2315
द्ध्य	-2316
द्भास	-2317
धर्मं	-2318
धर्मा	-2319
धर्मो	-2320
नार्थ	-2321
निन्द	-2322
न्मया	-2323
न्येव	-2324
परायण	-2325
पुष्प	-2326
प्रदा	-2327
बन्धं	-2328
भवामि	-2329
भ्यास	-2330
मामेव	-2331
मास्थ	-2332
माहवे	-2333
मेयम्	-2334
मोक्ष	-2335
यामास	-2336
युधाम	-2337
रजस्य	-2338
राजित	-2339
रानपि	-2340
रीक्ष	-2341
र्त्य	-2342
र्दवं	-2343
र्पित	-2344
र्मति	-2345
र्लोक	-2346
लोष्ट	-2347
वर्णं	-2348
विजयं	-2349
विनाश	-2350
विभ्र	-2351
विशेष	-2352
विहार	-2353
वेश्य	-2354
श्यत्	-2355
सङ्कर	-2356
सङ्घा	-2357
सन्तु	-2358
सर्वं	-2359
सर्वे	-2360
सहस्र	-2361
सुरीं	-2362
स्ततो	-2363
स्तदा	-2364
स्तपो	-2365
स्तेन	-2366
हत्वा	-2367
ाकाङ्	-2368
ाग्नौ	-2369
ान्तर	-2370
ार्थं	-2371
ावान्	-2372
ाश्रय	-2373
ितुम्	-2374
ित्ये	-2375
ीतराग	-2376
ीरचाप	-2377
ुक्तं	-2378
ुक्ता	-2379
ुक्तो	-2380
ुम्नो	-2381
ेऽप्य	-2382
ोक्तं	-2383
ोद्भव	-2384
ोनाति	-2385
ोऽनुप	-2386
्यस्य	-2387
्यासं	-2388
्यासी	-2389
्रुवो	-2390
्वाशी	-2391
▁48||	-2392
▁49||	-2393
▁50||	-2394
▁54||	-2395
▁55||	-2396
▁अत्र	-2397
▁आत्म	-2398
▁आसुर	-2399
▁कारण	-2400
▁काशि	-2401
▁गोवि	-2402
▁चाहं	-2403
▁चेत्	-2404
▁चैवा	-2405
▁जातु	-2406
▁तच्छ	-2407
▁ततम्	-2408
▁तान्	-2409
▁तेजो	-2410
▁त्या	-2411
▁त्वि	-2412
▁देही	-2413
▁द्वि	-2414
▁नचिर	-2415
▁नरपु	-2416
▁नराध	-2417
▁नैनं	-2418
▁पावक	-2419
▁पिता	-2420
▁पुष्	-2421
▁प्रद	-2422
▁प्रह	-2423
▁बन्ध	-2424
▁भावा	-2425
▁भोगा	-2426
▁भोगी	-2427
▁मामि	-2428
▁यद्य	-2429
▁यस्य	-2430
▁युधि	-2431
▁योगो	-2432
▁विभु	-2433
▁विभू	-2434
▁वेदा	-2435
▁वेपथ	-2436
▁व्यथ	-2437
▁व्या	-2438
▁व्यु	-2439
▁शब्द	-2440
▁शरणं	-2441
▁शौचम	-2442
▁सक्त	-2443
▁सम्म	-2444
▁सर्ग	-2445
▁हन्य	-2446
▁हस्त	-2447
▁हृदि	-2448
आत्मसं	-2449
काञ्चन	-2450
कीर्ति	-2451
कुन्ति	-2452
कृत्वा	-2453
क्षत्र	-2454
क्षिभि	-2455
घोषमणि	-2456
चक्षुष	-2457
त्वात्	-2458
दह्यते	-2459
दासीनो	-2460
देवश्च	-2461
द्दधान	-2462
द्दानं	-2463
द्योनि	-2464
धिदैवं	-2465
धिभूतं	-2466
ध्यस्व	-2467
निष्ये	-2468
पश्चित	-2469
पुत्रो	-2470
प्रसाद	-2471
प्रिया	-2472
प्रियो	-2473
भिरक्ष	-2474
भिर्वि	-2475
भूतानि	-2476
भोजश्च	-2477
मात्मा	-2478
मानिता	-2479
मुपैति	-2480
मोहिता	-2481
योगपरो	-2482
राजश्च	-2483
र्गुणै	-2484
र्जन्म	-2485
र्धनम्	-2486
र्ध्वं	-2487
विद्या	-2488
विभूतय	-2489
वृद्धं	-2490
श्वरोऽ	-2491
ष्टभ्य	-2492
संग्रह	-2493
सत्त्व	-2494
समुद्र	-2495
सम्मोह	-2496
सिद्धि	-2497
स्तथैव	-2498
स्त्री	-2499
स्मान्	-2500
ात्मनो	-2501
ाश्रित	-2502
ितव्यं	-2503
ित्येत	-2504
ुद्धये	-2505
ुवन्ति	-2506
ुश्चेक	-2507
ेष्वास	-2508
ैष्यसि	-2509
ोच्यते	-2510
ौजाश्च	-2511
्रुवम्	-2512
▁इत्यु	-2513
▁करोति	-2514
▁कार्य	-2515
▁किरीट	-2516
▁केवलं	-2517
▁चापरे	-2518
▁चित्त	-2519
▁चिन्त	-2520
▁चेतसा	-2521
▁तवेदं	-2522
▁तामसी	-2523
▁तुष्ट	-2524
▁दमश्च	-2525
▁देवेश	-2526
▁धृत्य	-2527
▁नियतं	-2528
▁परस्त	-2529
▁पश्या	-2530
▁प्रजा	-2531
▁प्रलय	-2532
▁बोद्ध	-2533
▁भवान्	-2534
▁मद्या	-2535
▁मध्यं	-2536
▁मानुष	-2537
▁मुह्य	-2538
▁योगसं	-2539
▁राजसा	-2540
▁राजसी	-2541
▁रुद्र	-2542
▁विक्र	-2543
▁विद्य	-2544
▁विहाय	-2545
▁संन्य	-2546
▁सत्यम	-2547
▁सदृशो	-2548
▁सन्तु	-2549
▁समाचर	-2550
▁सर्वं	-2551
▁सर्वत	-2552
▁सात्य	-2553
▁सुखदु	-2554
▁स्वाम	-2555
▁हन्ति	-2556
▁हुतम्	-2557
अधियज्ञ	-2558
अप्रकाश	-2559
अश्वत्थ	-2560
इदमस्ती	-2561
उदासीनव	-2562
कायमानस	-2563
किश्चाप	-2564
कीर्तित	-2565
क्त्वेन	-2566
क्ष्यसे	-2567
च्छ्रेय	-2568
ज्ञानां	-2569
ञ्जायते	-2570
तस्मात्	-2571
तस्याहं	-2572
द्बुद्ध	-2573
द्रुपदो	-2574
धिष्ठिर	-2575
नमात्मन	-2576
न्त्यवि	-2577
न्निवास	-2578
न्युश्च	-2579
पुष्पकौ	-2580
पैशुनम्	-2581
ब्रवीत्	-2582
भयक्रोध	-2583
मादिदेव	-2584
मावृत्य	-2585
मित्युत	-2586
म्यवस्थ	-2587
यक्ष्ये	-2588
रिष्यसि	-2589
लिप्यते	-2590
लोलुप्त	-2591
विज्ञान	-2592
विमुच्य	-2593
व्यक्तं	-2594
श्चर्यव	-2595
संन्यास	-2596
सङ्कल्प	-2597
सर्वत्र	-2598
सर्वेषु	-2599
सिद्ध्य	-2600
सौभद्रो	-2601
ाहङ्कार	-2602
िरारम्भ	-2603
ुक्त्वा	-2604
ेष्वासा	-2605
ैश्वर्य	-2606
▁इदमद्य	-2607
▁कर्तार	-2608
▁कर्तुं	-2609
▁कर्मणो	-2610
▁कर्मसु	-2611
▁कामराग	-2612
▁कुन्ती	-2613
▁कूटस्थ	-2614
▁कोऽन्य	-2615
▁ज्ञानी	-2616
▁तस्माद	-2617
▁तान्वि	-2618
▁दिव्या	-2619
▁दिशश्च	-2620
▁देवर्ष	-2621
▁देहभृत	-2622
▁निर्मम	-2623
▁निष्ठा	-2624
▁पुनस्त	-2625
▁प्रसभं	-2626
▁प्राहु	-2627
▁प्रीति	-2628
▁बलवान्	-2629
▁बुद्धे	-2630
▁भजन्ते	-2631
▁भविष्य	-2632
▁मन्यसे	-2633
▁यतवाक्	-2634
▁युद्धे	-2635
▁रजस्तम	-2636
▁लभन्ते	-2637
▁वर्तते	-2638
▁विस्तर	-2639
▁शान्तो	-2640
▁श्रुति	-2641
▁सर्वान	-2642
▁सिद्धि	-2643
▁स्थानं	-2644
▁स्थापय	-2645
▁स्थिति	-2646
▁स्पर्श	-2647
▁स्मृति	-2648
अहङ्कारं	-2649
कर्मणाम्	-2650
काश्यश्च	-2651
क्षेत्रं	-2652
गाण्डीवं	-2653
चिन्तयन्	-2654
द्युम्नो	-2655
द्वन्द्व	-2656
धाम्यहम्	-2657
धृष्टकेत	-2658
ध्यात्मं	-2659
नवानस्मि	-2660
न्न्यस्य	-2661
पुरुजित्	-2662
पूर्वकम्	-2663
प्रतिष्ठ	-2664
प्रमेयम्	-2665
माप्नोति	-2666
मित्तानि	-2667
मैश्वरम्	-2668
र्जुनसमा	-2669
र्पितमनो	-2670
संशुद्धि	-2671
ान्दध्मु	-2672
ीरचापलम्	-2673
ुमर्हस्य	-2674
▁आर्जवम्	-2675
▁उपजायते	-2676
▁कर्मणां	-2677
▁कर्मण्य	-2678
▁कश्चित्	-2679
▁गुणकर्म	-2680
▁गोविन्द	-2681
▁चार्जुन	-2682
▁जनार्दन	-2683
▁ज्ञानिन	-2684
▁धर्म्यं	-2685
▁नेङ्गते	-2686
▁पण्डिता	-2687
▁पृथग्वि	-2688
▁प्रपश्य	-2689
▁प्रमादो	-2690
▁प्रसृता	-2691
▁प्राणमा	-2692
▁बुद्धिं	-2693
▁भूतानां	-2694
▁भूतेष्व	-2695
▁भ्रमतीव	-2696
▁मनोरथम्	-2697
▁महाबाहु	-2698
▁मार्दवं	-2699
▁मोदिष्य	-2700
▁यज्ञश्च	-2701
▁युज्यते	-2702
▁योत्स्य	-2703
▁लघ्वाशी	-2704
▁लिप्यते	-2705
▁वर्तमान	-2706
▁वासुदेव	-2707
▁विन्दति	-2708
▁व्यवसाय	-2709
▁शाश्वतं	-2710
▁शिखण्डी	-2711
▁समलोष्ट	-2712
▁स्मृतम्	-2713
▁स्रंसते	-2714
▁ह्यात्म	-2715
आढ्योऽभिज	-2716
महेश्वरम्	-2717
युक्तानां	-2718
र्हनिष्ये	-2719
वृत्तिश्च	-2720
सौभद्रश्च	-2721
▁कर्मसङ्ग	-2722
▁किञ्चित्	-2723
▁चापरानपि	-2724
▁त्रिविधं	-2725
▁दास्यामि	-2726
▁द्रवन्ति	-2727
▁द्रष्टुं	-2728
▁नरपुङ्गव	-2729
▁निबध्यते	-2730
▁प्रकृतिज	-2731
▁प्रशान्त	-2732
▁भविष्यति	-2733
▁भूतग्राम	-2734
▁युयुधानो	-2735
▁योगयुक्त	-2736
▁लब्धमिमं	-2737
▁वेपथुश्च	-2738
▁वैराग्यं	-2739
▁व्युदस्य	-2740
▁शैब्यश्च	-2741
▁श्रद्धया	-2742
▁सहदेवश्च	-2743
▁सुघोषमणि	-2744
एवमुक्त्वा	-2745
क्षेत्रज्ञ	-2746
तमस्येतानि	-2747
द्रोहोनाति	-2748
द्विवृद्धं	-2749
यतेन्द्रिय	-2750
रजस्येतानि	-2751
र्ज्ञानयोग	-2752
लोलुप्त्वं	-2753
व्यवस्थिति	-2754
श्वरोऽहमहं	-2755
ात्त्वक्चै	-2756
ाश्मकाञ्चन	-2757
ुश्चेकितान	-2758
ैर्विमुक्त	-2759
▁कर्मणामशम	-2760
▁जगन्निवास	-2761
▁द्रुपदश्च	-2762
▁निरहङ्कार	-2763
▁परमेष्वास	-2764
▁परिग्रहम्	-2765
▁परिदह्यते	-2766
▁पुनर्जन्म	-2767
▁पुनर्धनम्	-2768
▁पृथिवीपते	-2769
▁बोद्धव्यं	-2770
▁ब्रह्मभूत	-2771
▁महेष्वासा	-2772
▁युधिष्ठिर	-2773
▁विक्रान्त	-2774
▁विचाल्यते	-2775
▁विपरीतानि	-2776
▁विशिष्यते	-2777
▁विशुद्धया	-2778
▁संस्मृत्य	-2779
▁सात्त्विक	-2780
▁सिद्धोऽहं	-2781
▁स्वाध्याय	-2782
इदमस्तीदमपि	-2783
कर्मफलत्याग	-2784
दंष्ट्राकरा	-2785
ध्यानयोगपरो	-2786
म्यवस्थातुं	-2787
विविक्तसेवी	-2788
ोऽनुपश्यामि	-2789
▁अनन्तविजयं	-2790
▁काशिराजश्च	-2791
▁क्षेत्रज्ञ	-2792
▁धृतराष्ट्र	-2793
▁निमित्तानि	-2794
▁निवर्तन्ते	-2795
▁पृथक्त्वेन	-2796
▁प्राप्स्ये	-2797
▁बलवान्सुखी	-2798
▁भोगैश्वर्य	-2799
▁मानापमानयो	-2800
▁रोमहर्षश्च	-2801
▁सत्यमक्रोध	-2802
▁समुपाश्रित	-2803
▁स्वजनमाहवे	-2804
अप्रकाशोऽप्र	-2805
किश्चापराजित	-2806
कुन्तिभोजश्च	-2807
धार्तराष्ट्र	-2808
मय्यर्पितमनो	-2809
युधामन्युश्च	-2810
शीतोष्णसुखदु	-2811
▁इत्यज्ञानवि	-2812
▁उत्तमौजाश्च	-2813
▁ब्रह्मभूयाय	-2814
▁मृत्युसंसार	-2815
▁यज्ज्ञात्वा	-2816
▁सर्वकर्माणि	-2817
▁सर्वभूतहिते	-2818
▁ह्रीरचापलम्	-2819
धृष्टद्युम्नो	-2820
शब्दादीन्विषय	-2821
▁कुन्तीपुत्रो	-2822
▁कोऽन्योऽस्ति	-2823
▁धृत्यात्मानं	-2824
▁भीमार्जुनसमा	-2825
▁विश्वतोमुखम्	-2826
▁शङ्खान्दध्मु	-2827
▁शोचितुमर्हसि	-2828
▁सर्वद्वारेषु	-2829
▁दैवीमभिजातस्य	-2830
▁यतवाक्कायमानस	-2831
▁सत्त्वमित्युत	-2832
▁स्वाध्यायस्तप	-2833
▁ह्यात्मविभूतय	-2834
▁शत्रुर्हनिष्ये	-2835
▁शान्तिरपैशुनम्	-2836
▁शौचमद्रोहोनाति	-2837
▁सत्त्वसंशुद्धि	-2838
▁हस्तात्त्वक्चै	-2839
▁प्रवृत्तिरारम्भ	-2840
▁सुघोषमणिपुष्पकौ	-2841
अत	-2842
उभ	-2843
खा	-2844
तद	-2845
तर	-2846
थि	-2847
थो	-2848
दर	-2849
दी	-2850
धन	-2851
नौ	-2852
पन	-2853
पे	-2854
भज	-2855
भी	-2856
भृ	-2857
मौ	-2858
यश	-2859
रध	-2860
रस	-2861
लव	-2862
लु	-2863
वो	-2864
शि	-2865
सद	-2866
हु	-2867
ूम	-2868
ेग	-2869
अना	-2870
अपि	-2871
अहं	-2872
आहु	-2873
इति	-2874
इदं	-2875
कुर	-2876
कोऽ	-2877
गते	-2878
गर्	-2879
घ्न	-2880
ङ्क	-2881
चति	-2882
जाप	-2883
जिन	-2884
जेन	-2885
ज्र	-2886
ञ्श	-2887
ण्य	-2888
ततो	-2889
तदो	-2890
तयो	-2891
दति	-2892
दपि	-2893
दां	-2894
दिम	-2895
द्म	-2896
धाव	-2897
धाह	-2898
धिप	-2899
दौ	-2900
हा	-2901
ीह	-2902
ेम	-2903
ोद	-2904
अफल	-2905
केऽ	-2906
ध्व	-2907
नमन	-2908
निप	-2909
न्व	-2910
पञ्	-2911
पत्	-2912
पया	-2913
पाण	-2914
पात	-2915
पुण	-2916
पुन	-2917
पेन	-2918
फलं	-2919
बोध	-2920
भिस	-2921
मति	-2922
मते	-2923
मात	-2924
माय	-2925
मास	-2926
मिष	-2927
मिह	-2928
मुल	-2929
मेक	-2930
मोऽ	-2931
यज्	-2932
यत्	-2933
यथा	-2934
यमा	-2935
यसी	-2936
याप	-2937
योऽ	-2938
रता	-2939
रमा	-2940
रुण	-2941
रूढ	-2942
रेव	-2943
वनं	-2944
वयो	-2945
वाप	-2946
विज	-2947
विन	-2948
वीर	-2949
वेत	-2950
शनै	-2951
शास	-2952
शोच	-2953
सन्	-2954
समं	-2955
समन	-2956
सहा	-2957
साध	-2958
सेऽ	-2959
हद्	-2960
हना	-2961
हैव	-2962
ह्य	-2963
ातं	-2964
ातत	-2965
ानव	-2966
ामा	-2967
ामृ	-2968
ामे	-2969
ावह	-2970
ाहम	-2971
िका	-2972
िरा	-2973
िषु	-2974
ीतो	-2975
ीयं	-2976
ीवि	-2977
ुतं	-2978
ुने	-2979
ृतं	-2980
ृत्	-2981
ेका	-2982
ेको	-2983
ेतै	-2984
ेधा	-2985
ेना	-2986
ेयत	-2987
ेयो	-2988
ेहं	-2989
ेहे	-2990
ैतु	-2991
ैरि	-2992
ैवं	-2993
ोऽथ	-2994
्तम	-2995
्नि	-2996
्यध	-2997
्रज	-2998
▁36	-2999
गणा	-3000
गती	-3001
ग्ध	-3002
चलं	-3003
यमी	-3004
रीय	-3005
लग्	-3006
ादौ	-3007
ुहु	-3008
ेणा	-3009
ोधा	-3010
▁अध	-3011
▁इम	-3012
▁एष	-3013
▁कथ	-3014
▁की	-3015
▁के	-3016
▁गद	-3017
▁गम	-3018
▁चक	-3019
▁चर	-3020
▁चू	-3021
▁चे	-3022
▁जय	-3023
▁तू	-3024
▁दी	-3025
▁नृ	-3026
▁पच	-3027
▁पव	-3028
▁पृ	-3029
▁बत	-3030
▁भो	-3031
▁मि	-3032
▁मै	-3033
▁रण	-3034
▁रथ	-3035
▁रह	-3036
▁वह	-3037
▁वृ	-3038
▁शन	-3039
▁हन	-3040
असंश	-3041
इत्य	-3042
कर्ष	-3043
कानि	-3044
काम्	-3045
कारण	-3046
कारम	-3047
क्ते	-3048
क्रम	-3049
क्षी	-3050
ग्रे	-3051
ङ्गा	-3052
चर्य	-3053
चलेन	-3054
चारो	-3055
जयसि	-3056
ञ्जि	-3057
तथैव	-3058
तदेव	-3059
तमेव	-3060
त्तं	-3061
त्तु	-3062
त्रं	-3063
त्री	-3064
त्सा	-3065
दम्भ	-3066
दस्त	-3067
दामि	-3068
दुष्	-3069
द्यु	-3070
धारय	-3071
धिको	-3072
धिमु	-3073
धुक्	-3074
ध्मौ	-3075
नन्य	-3076
नसूय	-3077
नाहं	-3078
निन्	-3079
नोभि	-3080
पनम्	-3081
परमे	-3082
परमो	-3083
परम्	-3084
परस्	-3085
पाणय	-3086
पापं	-3087
प्रं	-3088
प्रल	-3089
प्रश	-3090
प्रा	-3091
बहुल	-3092
भवति	-3093
भावन	-3094
भिभव	-3095
भ्या	-3096
मक्ष	-3097
मतां	-3098
मत्त	-3099
णमृ	-3100
तदे	-3101
दीय	-3102
मीद	-3103
ुवो	-3104
ैकं	-3105
अजान	-3106
त्थं	-3107
ब्धा	-3108
मत्य	-3109
मत्स	-3110
मनेक	-3111
मवशं	-3112
माहु	-3113
मिवा	-3114
मीति	-3115
मूढा	-3116
यत्त	-3117
यद्य	-3118
यस्य	-3119
यात्	-3120
यानघ	-3121
यावद	-3122
योगं	-3123
योगी	-3124
योनय	-3125
रजसि	-3126
रन्म	-3127
रेषु	-3128
र्णा	-3129
र्तय	-3130
र्ति	-3131
र्मौ	-3132
र्वश	-3133
र्हा	-3134
र्हि	-3135
लस्य	-3136
लोकं	-3137
वश्य	-3138
वापि	-3139
वायो	-3140
विधो	-3141
वीरा	-3142
वृता	-3143
व्यम	-3144
व्यो	-3145
शुचि	-3146
शुरा	-3147
श्यम	-3148
श्वि	-3149
ष्णो	-3150
सन्न	-3151
समनु	-3152
सागर	-3153
सात्	-3154
सादा	-3155
सुरी	-3156
स्तव	-3157
स्तै	-3158
स्था	-3159
स्रम	-3160
हन्य	-3161
हराग	-3162
हारा	-3163
ातीत	-3164
ानहं	-3165
ानेत	-3166
ान्स	-3167
ामये	-3168
ामहम	-3169
ामाद	-3170
ाराम	-3171
ारिप	-3172
ाहम्	-3173
िदपि	-3174
िनां	-3175
िभ्य	-3176
िर्न	-3177
िष्य	-3178
ीष्व	-3179
ुन्म	-3180
ुस्त	-3181
ृश्य	-3182
ेणेव	-3183
ेर्य	-3184
ैतां	-3185
ैर्म	-3186
ैवाव	-3187
ैश्च	-3188
ैष्य	-3189
ोक्ष	-3190
ोलोक	-3191
्न्न	-3192
्मां	-3193
्येण	-3194
्येव	-3195
्वास	-3196
्वैव	-3197
▁||2	-3198
▁अनु	-3199
जहि	-3200
लाभ	-3201
ूहि	-3202
प्नु	-3203
मोहा	-3204
शक्य	-3205
ीषिण	-3206
ैर्न	-3207
▁अपर	-3208
▁अपि	-3209
▁अहो	-3210
▁आयु	-3211
▁इमा	-3212
▁उत्	-3213
▁एषा	-3214
▁कपि	-3215
▁कोऽ	-3216
▁गता	-3217
▁गुह	-3218
▁गृह	-3219
▁ग्र	-3220
▁घ्न	-3221
▁चरा	-3222
▁चाद	-3223
▁चाभ	-3224
▁चेद	-3225
▁जान	-3226
▁दान	-3227
▁धूम	-3228
▁नात	-3229
▁नाम	-3230
▁निध	-3231
▁नेह	-3232
▁पदम	-3233
▁पात	-3234
▁पूत	-3235
▁बलव	-3236
▁बृह	-3237
▁भीत	-3238
▁मति	-3239
▁यतो	-3240
▁यदृ	-3241
▁यां	-3242
▁रथं	-3243
▁रवि	-3244
▁वयं	-3245
▁शुभ	-3246
▁सति	-3247
▁सद्	-3248
▁समौ	-3249
▁सूत	-3250
▁सृज	-3251
▁सेव	-3252
▁सोऽ	-3253
▁हिं	-3254
अनन्त	-3255
अनन्य	-3256
असितो	-3257
कल्मष	-3258
काम्य	-3259
कीर्ष	-3260
कृतां	-3261
क्राम	-3262
क्षते	-3263
क्षयो	-3264
क्षिप	-3265
क्ष्म	-3266
खानां	-3267
खिलम्	-3268
चेतसा	-3269
जनेषु	-3270
ज्यया	-3271
ज्याय	-3272
तदेकं	-3273
तस्तु	-3274
तस्मा	-3275
तासां	-3276
तुरहं	-3277
तोऽपि	-3278
दिर्न	-3279
दिव्य	-3280
दीनां	-3281
दुर्ग	-3282
देवता	-3283
देवेत	-3284
द्देश	-3285
द्धाम	-3286
द्यता	-3287
द्यमे	-3288
द्वत्	-3289
द्वां	-3290
द्वेद	-3291
धर्मे	-3292
धानम्	-3293
नियतं	-3294
नुष्ठ	-3295
नुष्य	-3296
नुस्म	-3297
न्गुण	-3298
न्तोऽ	-3299
मजं	-3300
दाचन	-3301
नातन	-3302
बलेन	-3303
▁अशा	-3304
▁शशा	-3305
गतासू	-3306
च्चिद	-3307
त्युत	-3308
द्भुत	-3309
न्धाय	-3310
न्मना	-3311
न्याय	-3312
न्स्प	-3313
न्स्व	-3314
पन्ना	-3315
पन्वि	-3316
परिमा	-3317
पितां	-3318
पिताह	-3319
पूर्य	-3320
प्रती	-3321
बान्ध	-3322
बाह्य	-3323
भावयत	-3324
भावेन	-3325
भिर्न	-3326
भुञ्ज	-3327
भ्यसू	-3328
मचेतस	-3329
मतिर्	-3330
मधर्म	-3331
मनसैव	-3332
मव्यय	-3333
मस्मा	-3334
मागता	-3335
मित्य	-3336
मुलोऽ	-3337
मुवाच	-3338
मृतोप	-3339
यज्ञे	-3340
यद्रा	-3341
यम्ये	-3342
येषाम	-3343
योगिन	-3344
योपेत	-3345
योरपि	-3346
योऽयं	-3347
रन्ति	-3348
रेद्य	-3349
र्णित	-3350
र्थमस	-3351
र्मया	-3352
र्यत्	-3353
र्ष्ण	-3354
र्हसि	-3355
लग्ना	-3356
लभतरं	-3357
लोक्य	-3358
लोभेन	-3359
वसिता	-3360
वाङ्म	-3361
वादमि	-3362
वाप्त	-3363
विकार	-3364
विदां	-3365
विभाग	-3366
विरूढ	-3367
विष्ट	-3368
वीर्य	-3369
वेशित	-3370
व्यां	-3371
व्याभ	-3372
शाश्व	-3373
शिष्ट	-3374
शोऽयश	-3375
श्नन्	-3376
संस्थ	-3377
सङ्घै	-3378
सत्तम	-3379
साभ्य	-3380
सूर्य	-3381
स्तदो	-3382
स्ताम	-3383
स्तेज	-3384
स्तेऽ	-3385
स्थिर	-3386
स्विन	-3387
ाञ्जल	-3388
ातश्च	-3389
ात्रं	-3390
ादस्म	-3391
ानातत	-3392
ानुले	-3393
ान्ना	-3394
ान्ये	-3395
ान्हि	-3396
ामन्त	-3397
ामृषय	-3398
ाम्यज	-3399
अथवा	-3400
अपरे	-3401
कादय	-3402
गतिं	-3403
णोरण	-3404
बलान	-3405
म्बु	-3406
रधरं	-3407
ोपलभ	-3408
▁कमल	-3409
▁धीर	-3410
▁सोढ	-3411
उपविश	-3412
नकाङ्	-3413
निमाप	-3414
मलान्	-3415
महमौष	-3416
शुभान	-3417
सृजन्	-3418
ारभते	-3419
ारीरं	-3420
ासङ्ग	-3421
ितात्	-3422
ितारम	-3423
िन्ना	-3424
िमानं	-3425
िविधं	-3426
ीप्तं	-3427
ुत्वा	-3428
ूरान्	-3429
ृत्वे	-3430
ेभ्यो	-3431
ेवरम्	-3432
ैर्यो	-3433
ोक्ता	-3434
ोहात्	-3435
ोऽहमह	-3436
ोऽहमा	-3437
्पर्श	-3438
्मानु	-3439
्याणि	-3440
्याला	-3441
्वलनं	-3442
▁56||	-3443
▁57||	-3444
▁58||	-3445
▁59||	-3446
▁60||	-3447
▁61||	-3448
▁62||	-3449
▁63||	-3450
▁64||	-3451
▁65||	-3452
▁66||	-3453
▁67||	-3454
▁68||	-3455
▁69||	-3456
▁70||	-3457
▁71||	-3458
▁72||	-3459
▁अद्व	-3460
▁आचार	-3461
▁आसीत	-3462
▁एतां	-3463
▁करुण	-3464
▁किम्	-3465
▁कुले	-3466
▁कृतं	-3467
▁केषु	-3468
▁क्षी	-3469
▁गन्त	-3470
▁गुणभ	-3471
▁गुणै	-3472
▁घोरं	-3473
▁घोरे	-3474
▁चक्र	-3475
▁चञ्च	-3476
▁चापि	-3477
▁चेति	-3478
▁चैनं	-3479
▁छन्द	-3480
▁जगतो	-3481
▁तथैव	-3482
▁तपसा	-3483
▁तपसि	-3484
▁तप्य	-3485
▁तमेव	-3486
▁तानि	-3487
▁तामस	-3488
▁त्वय	-3489
▁दाने	-3490
▁दिवि	-3491
▁देवा	-3492
▁दैवी	-3493
▁धाता	-3494
▁ध्या	-3495
▁नासि	-3496
▁निशा	-3497
▁नीति	-3498
▁नैवं	-3499
वीषि	-3500
क्साम	-3501
ाहारा	-3502
ेमतरं	-3503
▁कविं	-3504
▁नमस्	-3505
▁परया	-3506
▁पर्य	-3507
▁पापं	-3508
▁पितर	-3509
▁पितृ	-3510
▁पुरा	-3511
▁प्रत	-3512
▁प्रभ	-3513
▁प्रा	-3514
▁बीजं	-3515
▁बुधा	-3516
▁भयान	-3517
▁भवोऽ	-3518
▁भावो	-3519
▁मतम्	-3520
▁मन्त	-3521
▁मरुत	-3522
▁महत्	-3523
▁माता	-3524
▁माधव	-3525
▁मानव	-3526
▁मामज	-3527
▁माम्	-3528
▁यदीद	-3529
▁यस्त	-3530
▁यादव	-3531
▁यामि	-3532
▁युगे	-3533
▁रसोऽ	-3534
▁राजस	-3535
▁लोको	-3536
▁वक्त	-3537
▁वचनं	-3538
▁वयम्	-3539
▁वर्ण	-3540
▁वाचं	-3541
▁विधि	-3542
▁विमु	-3543
▁सङ्ख	-3544
▁सचरा	-3545
▁सच्छ	-3546
▁समता	-3547
▁समाध	-3548
▁साधु	-3549
▁स्वं	-3550
▁स्वे	-3551
▁हृदय	-3552
▁हेतव	-3553
▁हेतो	-3554
▁ह्या	-3555
अनिकेत	-3556
अनेकदि	-3557
अभ्यास	-3558
अहमादि	-3559
आसुरीं	-3560
एतद्धि	-3561
कर्मणि	-3562
कार्ये	-3563
क्षपित	-3564
क्षितं	-3565
ग्निषु	-3566
घ्रन्न	-3567
चक्षते	-3568
चारिणौ	-3569
ज्ञेयं	-3570
ज्यमहम	-3571
ज्यसुख	-3572
ज्यस्व	-3573
तत्किं	-3574
तत्क्ष	-3575
तस्माद	-3576
तिष्ठा	-3577
तीतानि	-3578
त्यकृत	-3579
त्यागी	-3580
दन्येन	-3581
दर्शिन	-3582
दाचरति	-3583
दासीनम	-3584
द्भवति	-3585
द्भुतं	-3586
द्रोहे	-3587
नन्यया	-3588
नान्तो	-3589
निर्दे	-3590
निर्वि	-3591
नेत्रं	-3592
न्कर्त	-3593
न्नचलं	-3594
न्नेवं	-3595
न्यस्त	-3596
पश्यति	-3597
पाश्रय	-3598
पुरुषं	-3599
यसीव	-3600
▁शशि	-3601
एकोऽथ	-3602
गर्भं	-3603
जापति	-3604
द्वेग	-3605
नयनमन	-3606
निपाल	-3607
पुण्य	-3608
रमाणा	-3609
विगते	-3610
सौसहा	-3611
ानेको	-3612
▁गेहे	-3613
▁व्रज	-3614
असंशयं	-3615
कृत्तम	-3616
निन्दा	-3617
पञ्श्व	-3618
प्येते	-3619
प्रज्ञ	-3620
प्रभाव	-3621
प्रसीद	-3622
प्सुना	-3623
बन्धिन	-3624
बहुलां	-3625
भिमुखा	-3626
भीष्मो	-3627
भूतिभि	-3628
भ्रष्ट	-3629
भ्रुवो	-3630
मचलन्ध	-3631
मनन्तं	-3632
मनुशास	-3633
मन्त्र	-3634
मस्येह	-3635
माणानि	-3636
मातुला	-3637
माद्यं	-3638
माल्या	-3639
मुख्यै	-3640
मेवापि	-3641
यज्ञेन	-3642
यापहृत	-3643
यावदेत	-3644
रूपमाद	-3645
र्णश्च	-3646
र्णानि	-3647
र्थीयं	-3648
र्भवति	-3649
र्मेधा	-3650
र्योगं	-3651
लोकयन्	-3652
वशोऽपि	-3653
वादरता	-3654
विज्वल	-3655
वेत्ति	-3656
वेद्यं	-3657
व्यामि	-3658
शुभात्	-3659
श्चैनं	-3660
श्नुते	-3661
श्रयेद	-3662
श्वरम्	-3663
श्विनौ	-3664
ष्कर्म	-3665
संयोगं	-3666
संशयम्	-3667
समक्षं	-3668
समासेन	-3669
सर्वथा	-3670
सामहम्	-3671
सिद्धौ	-3672
सुदुर्	-3673
स्तदनु	-3674
स्तमसि	-3675
स्पर्श	-3676
स्माकं	-3677
स्मृति	-3678
स्वजनं	-3679
स्वभाव	-3680
हत्वैत	-3681
हरागमे	-3682
ाण्यभि	-3683
ात्मकं	-3684
ात्मन्	-3685
ात्मभि	-3686
ात्मसं	-3687
ात्स्व	-3688
ानिमां	-3689
ान्काम	-3690
ान्तरे	-3691
ान्यपि	-3692
ायुधम्	-3693
ावहासा	-3694
ाह्मणा	-3695
िषन्नि	-3696
िस्तपो	-3697
ीत्युप	-3698
ीवितेन	-3699
अजानता	-3700
र्मौनी	-3701
स्मदीय	-3702
ानेतान	-3703
ीष्वेव	-3704
ुकामान	-3705
ुश्चैव	-3706
ुष्यति	-3707
ृशञ्जि	-3708
ेन्द्र	-3709
ेऽपानं	-3710
ेऽस्मि	-3711
ैकस्थं	-3712
ैतुकम्	-3713
ोद्भवं	-3714
ोऽक्षर	-3715
ोऽम्बु	-3716
्यधमां	-3717
्याधाय	-3718
्यासने	-3719
्यासुर	-3720
्रियते	-3721
▁अन्तव	-3722
▁अन्ये	-3723
▁अपाने	-3724
▁आसुरं	-3725
▁इच्छा	-3726
▁एवायं	-3727
▁कदाचन	-3728
▁कालेन	-3729
▁कीर्त	-3730
▁कृतम्	-3731
▁क्षमी	-3732
▁गत्वा	-3733
▁गदिनं	-3734
▁चक्षु	-3735
▁चतुर्	-3736
▁छित्त	-3737
▁छेत्त	-3738
▁जाग्र	-3739
▁तत्रै	-3740
▁तवामी	-3741
▁तानहं	-3742
▁तामसा	-3743
▁दध्मौ	-3744
▁दर्शय	-3745
▁दानेन	-3746
▁दीयते	-3747
▁दृढेन	-3748
▁देवलो	-3749
▁द्रोण	-3750
▁द्वेष	-3751
▁धनानि	-3752
▁नरलोक	-3753
▁निबोध	-3754
▁पराम्	-3755
▁पूरुष	-3756
▁पौरुष	-3757
▁प्रणि	-3758
▁प्रभा	-3759
▁प्रभु	-3760
▁प्रभो	-3761
▁प्रसा	-3762
▁बहिर्	-3763
▁भवन्त	-3764
▁भवेत्	-3765
▁मनश्च	-3766
▁मन्ये	-3767
▁मयानघ	-3768
▁मय्या	-3769
▁मुच्य	-3770
▁मैत्र	-3771
▁मोक्ष	-3772
▁यत्तु	-3773
▁यन्मम	-3774
▁यान्त	-3775
▁योगिं	-3776
▁रणसमु	-3777
▁रुद्ध	-3778
▁वादिन	-3779
▁विगुण	-3780
▁विजयं	-3781
▁विजान	-3782
▁विजित	-3783
▁विनाश	-3784
▁विमूढ	-3785
▁विषीद	-3786
▁विस्म	-3787
▁वेत्थ	-3788
▁शत्रौ	-3789
▁शनैरु	-3790
▁शरीरं	-3791
▁शूद्र	-3792
▁शोचति	-3793
▁श्रुत	-3794
▁संशयं	-3795
▁सदिति	-3796
▁सदृशं	-3797
▁सनातन	-3798
▁सम्यग	-3799
▁सुकृत	-3800
▁सुखिन	-3801
▁सूर्य	-3802
▁सृष्ट	-3803
▁सौम्य	-3804
▁स्थाव	-3805
▁स्वयं	-3806
▁ह्यपि	-3807
अधिभूतं	-3808
अव्यक्त	-3809
करोमीति	-3810
कर्माणं	-3811
कालेऽपि	-3812
किल्बिष	-3813
कैर्मया	-3814
क्रियते	-3815
क्षरक्ष	-3816
गृहीतया	-3817
ग्निरहं	-3818
घ्नानां	-3819
चक्षुषा	-3820
च्छान्त	-3821
ज्ञानजं	-3822
ज्ञासुर	-3823
ज्यायसी	-3824
ञ्शृण्व	-3825
तत्रैवं	-3826
तदोत्तम	-3827
तामस्मि	-3828
तेषामहं	-3829
त्प्रयु	-3830
त्वमस्य	-3831
त्सृज्य	-3832
दस्तीति	-3833
दात्मान	-3834
देवेतरो	-3835
द्गुह्य	-3836
द्दधाना	-3837
द्विजते	-3838
धिष्ठाय	-3839
ध्नन्ति	-3840
नेत्रम्	-3841
न्तमिदं	-3842
परमात्म	-3843
परिग्रह	-3844
पापमेवा	-3845
प्रकाशं	-3846
प्रदाम्	-3847
प्रमाणं	-3848
प्रसक्त	-3849
प्राप्त	-3850
प्रियम्	-3851
बध्नाति	-3852
भक्त्या	-3853
भोजनेषु	-3854
मश्रुते	-3855
मसम्मोह	-3856
मस्माभि	-3857
मात्मना	-3858
मानमदान	-3859
माश्रित	-3860
मिवाम्भ	-3861
मुद्यता	-3862
मोक्षाय	-3863
मोङ्कार	-3864
म्बरधरं	-3865
रिष्यति	-3866
रुच्यते	-3867
र्थेभ्य	-3868
र्वशात्	-3869
र्ष्णेय	-3870
लत्वात्	-3871
ल्बिषम्	-3872
वतामहम्	-3873
वष्टभ्य	-3874
वादमिमम	-3875
विभक्तं	-3876
विहारशय	-3877
व्यवसाय	-3878
शस्त्रं	-3879
शिरोग्र	-3880
शुचीनां	-3881
श्रेणेव	-3882
श्रेष्ठ	-3883
समनुस्म	-3884
सम्प्रे	-3885
सम्भावि	-3886
सम्भूतं	-3887
सम्मूढो	-3888
सर्वस्य	-3889
सर्वेऽप	-3890
सागरात्	-3891
स्तन्नि	-3892
स्तवापि	-3893
स्त्रिय	-3894
स्थितम्	-3895
स्मसात्	-3896
स्मिन्म	-3897
स्यास्य	-3898
स्वकर्म	-3899
हमर्जुन	-3900
ात्मन्य	-3901
ात्मिका	-3902
ानुबन्ध	-3903
ाश्रिता	-3904
ित्येवा	-3905
िमान्मे	-3906
िर्नारद	-3907
ुषज्जते	-3908
ुषित्वा	-3909
ेभ्यश्च	-3910
ेऽमृतोप	-3911
ैर्गुणै	-3912
ोऽस्त्य	-3913
्याप्तं	-3914
▁अभ्यास	-3915
▁एतान्न	-3916
▁कश्चिद	-3917
▁कश्चिन	-3918
▁कामकार	-3919
▁कामभोग	-3920
▁कार्या	-3921
▁कालेषु	-3922
▁कुरुते	-3923
▁कोऽत्र	-3924
▁गच्छति	-3925
▁चाद्यं	-3926
▁चित्तं	-3927
▁जनकादय	-3928
▁ज्वलनं	-3929
▁तथापरे	-3930
▁तथोपलभ	-3931
▁तदस्ति	-3932
▁तद्धाम	-3933
▁तपस्वि	-3934
▁दम्भेन	-3935
▁दुष्पू	-3936
▁देवान्	-3937
▁द्रोणं	-3938
▁द्विषत	-3939
▁धातारम	-3940
▁धारयन्	-3941
▁नदीनां	-3942
▁नास्ति	-3943
▁निग्रह	-3944
▁निराशी	-3945
▁निवर्त	-3946
▁निहत्य	-3947
▁पतङ्गा	-3948
▁परधर्म	-3949
▁पातकम्	-3950
▁पुराणी	-3951
▁पुरुषो	-3952
▁पौत्रा	-3953
▁प्रकृत	-3954
▁प्रत्य	-3955
▁प्रमाद	-3956
▁प्रलीन	-3957
▁प्राणं	-3958
▁प्रिया	-3959
▁प्रियो	-3960
▁बन्धुर	-3961
▁ब्रूहि	-3962
▁भावेषु	-3963
▁भोक्ता	-3964
▁भ्रुवो	-3965
▁मन्मना	-3966
▁मन्येत	-3967
▁मय्येव	-3968
▁मर्त्य	-3969
▁महर्षय	-3970
▁मामेति	-3971
▁मित्रे	-3972
▁मूर्तय	-3973
▁मोहमेव	-3974
▁यजुरेव	-3975
▁यज्ञतप	-3976
▁यशोऽयश	-3977
▁युक्तत	-3978
▁योनिषु	-3979
▁राजर्ष	-3980
▁राजसम्	-3981
▁रूपस्य	-3982
▁लोकस्य	-3983
▁विभक्त	-3984
▁विभुम्	-3985
▁विवस्व	-3986
▁विषमिव	-3987
▁विष्णो	-3988
▁वीतराग	-3989
▁वेदेषु	-3990
▁व्यक्त	-3991
▁श्याला	-3992
▁संयाति	-3993
▁समग्रं	-3994
▁समन्तत	-3995
▁समन्ता	-3996
▁समुद्ध	-3997
▁सम्यक्	-3998
▁सर्वाण	-3999
▁सहैवाव	-4000
▁स्थितं	-4001
▁स्थिरा	-4002
▁स्मरन्	-4003
▁स्वधाह	-4004
▁स्वप्न	-4005
▁स्वस्थ	-4006
▁हन्यते	-4007
▁ह्येनं	-4008
अप्राप्य	-4009
आहुस्त्व	-4010
कर्मकृत्	-4011
कर्षयन्त	-4012
कृत्स्नं	-4013
केचिद्वि	-4014
क्षत्रिय	-4015
क्षेत्रे	-4016
क्ष्यसेऽ	-4017
ज्ज्ञानं	-4018
णोरणीयां	-4019
दर्शमिदं	-4020
नयनमनेका	-4021
निर्महद्	-4022
नुष्येषु	-4023
न्यदेवता	-4024
न्याय्यं	-4025
परिमार्ग	-4026
प्नुयाम्	-4027
प्रवृत्त	-4028
प्रवृद्ध	-4029
प्रशस्ते	-4030
प्राणेषु	-4031
बुद्धिर्	-4032
भयक्रोधो	-4033
भूतग्राम	-4034
मजानन्तो	-4035
महमौषधम्	-4036
मात्मविश	-4037
माश्रिता	-4038
मास्थिता	-4039
मिच्छामि	-4040
मिषन्नपि	-4041
मूढात्मा	-4042
मूलमसङ्ग	-4043
यच्छ्रेय	-4044
यज्ञानां	-4045
यतामस्मि	-4046
यान्विता	-4047
याभिर्वि	-4048
यिष्यामि	-4049
युक्तस्य	-4050
राज्यस्य	-4051
रेषुसन्द	-4052
र्णितैरु	-4053
र्थान्वि	-4054
र्ब्रह्म	-4055
वतिष्ठति	-4056
वतिष्ठते	-4057
वादांश्च	-4058
वाप्नोति	-4059
विवर्जित	-4060
व्याभरणं	-4061
शरीरस्थं	-4062
शस्त्रेण	-4063
श्रद्धया	-4064
संन्यासी	-4065
संयुक्ता	-4066
संसारेषु	-4067
सन्तुष्ट	-4068
सिद्ध्यो	-4069
स्तत्त्व	-4070
स्तुल्यो	-4071
स्त्वन्य	-4072
ांश्चक्ष	-4073
ात्कृष्ण	-4074
ात्पार्थ	-4075
ाम्यात्म	-4076
ित्वान्न	-4077
िरन्तश्च	-4078
ुष्यन्ति	-4079
ुस्तन्मे	-4080
ृश्यन्ते	-4081
ोत्तिष्ठ	-4082
ोपहतचेतस	-4083
ोऽव्यक्त	-4084
्नुवन्ति	-4085
्न्नुन्म	-4086
्याद्योग	-4087
▁अप्यस्य	-4088
▁आचार्या	-4089
▁इत्येवं	-4090
▁एवंविधो	-4091
▁कर्मणैव	-4092
▁कर्मफलं	-4093
▁कर्मयोग	-4094
▁कलेवरम्	-4095
▁कल्पादौ	-4096
▁केनचित्	-4097
▁गुणातीत	-4098
▁चादिर्न	-4099
▁चाभयमेव	-4100
▁चिन्त्य	-4101
▁चेज्यया	-4102
▁चैवान्त	-4103
▁चोच्यते	-4104
▁ज्ञानदी	-4105
▁ज्ञानेन	-4106
▁तच्छृणु	-4107
▁तत्सर्व	-4108
▁तद्दानं	-4109
▁तस्माद्	-4110
▁तस्मिन्	-4111
▁तिष्ठति	-4112
▁तिष्ठसि	-4113
▁त्यजेत्	-4114
▁त्वामहम	-4115
▁दशनान्त	-4116
▁दिव्यम्	-4117
▁दुर्मति	-4118
▁देहभृत्	-4119
▁देहिनम्	-4120
▁धीमताम्	-4121
▁नासाभ्य	-4122
▁नास्त्य	-4123
▁निधानम्	-4124
▁पञ्चैते	-4125
▁पवित्रं	-4126
▁पितामहा	-4127
▁प्रयाति	-4128
▁प्रसन्न	-4129
▁बीजप्रद	-4130
▁बुद्धिय	-4131
▁ब्रवीषि	-4132
▁ब्रह्मा	-4133
▁भावयन्त	-4134
▁भोगैर्ज	-4135
▁मत्कर्म	-4136
▁मद्भावं	-4137
▁मद्याजी	-4138
▁महात्मन	-4139
▁महिमानं	-4140
▁महीकृते	-4141
▁मुह्यति	-4142
▁मोहयसीव	-4143
▁यतात्मा	-4144
▁यत्कर्म	-4145
▁यदुक्तं	-4146
▁यस्मिन्	-4147
▁यामिमां	-4148
▁यास्यसि	-4149
▁युद्धाय	-4150
▁युयुत्स	-4151
▁योगबलेन	-4152
▁योनिमाप	-4153
▁राज्येन	-4154
▁लब्ध्वा	-4155
▁लोकमिमं	-4156
▁वाक्येन	-4157
▁विज्ञान	-4158
▁विदुर्य	-4159
▁विद्ध्य	-4160
▁विपरीतं	-4161
▁विभूतिं	-4162
▁वेदैर्न	-4163
▁व्याप्य	-4164
▁शान्तिम	-4165
▁शाश्वती	-4166
▁शास्त्र	-4167
▁शुभाशुभ	-4168
▁श्रद्धा	-4169
▁श्रेष्ठ	-4170
▁श्वशुरा	-4171
▁संन्यास	-4172
▁सङ्कल्प	-4173
▁सङ्ख्ये	-4174
▁सच्छब्द	-4175
▁सत्त्वे	-4176
▁सद्भावे	-4177
▁सनातनम्	-4178
▁सम्पश्य	-4179
▁सर्वपाप	-4180
▁साङ्ख्य	-4181
▁सिद्धये	-4182
▁सुविरूढ	-4183
▁स्याज्ज	-4184
अनन्येनैव	-4185
आत्मन्येव	-4186
कर्मणस्ते	-4187
कल्पक्षये	-4188
कामात्मान	-4189
क्षिभिर्य	-4190
क्ष्याम्य	-4191
गच्छन्स्व	-4192
गन्धानुले	-4193
गमचिन्त्य	-4194
तिष्ठन्ति	-4195
त्कृतोऽसि	-4196
त्तमाङ्गै	-4197
त्प्राप्य	-4198
द्ध्यासुर	-4199
द्योनिरहं	-4200
द्वन्द्वो	-4201
निर्मोक्ष	-4202
निश्चयान्	-4203
नोद्विजते	-4204
नोभिर्यत्	-4205
पञ्श्वसन्	-4206
पिताहमस्य	-4207
प्रतिष्ठं	-4208
प्रतीकारम	-4209
प्रलपन्वि	-4210
प्राप्यैव	-4211
बलान्विता	-4212
बान्धवान्	-4213
ब्राह्मणा	-4214
मतिर्भक्त	-4215
मनोबुद्धि	-4216
माश्रित्य	-4217
येषामर्थे	-4218
रात्र्याग	-4219
रीक्षेऽहं	-4220
लोकसंग्रह	-4221
वक्त्राणि	-4222
वर्तितुम्	-4223
विगतेच्छा	-4224
विशिष्यते	-4225
वेदवादरता	-4226
शुभानासुर	-4227
श्चर्यमयं	-4228
समुद्भवम्	-4229
ानवलोकयन्	-4230
ानाततायिन	-4231
ानेकोद्यत	-4232
ान्कृत्वा	-4233
ान्नार्हा	-4234
ाम्यजस्रम	-4235
ारिपक्षयो	-4236
ित्यवर्णं	-4237
ेऽस्मिन्द	-4238
ोऽहमहमेवा	-4239
▁कर्मबन्ध	-4240
▁काङ्क्षे	-4241
▁कामक्रोध	-4242
▁किरीटिनं	-4243
▁कुतोऽन्य	-4244
▁कृत्स्नं	-4245
▁क्रतुरहं	-4246
▁क्रूरान्	-4247
▁क्षेत्रं	-4248
▁क्षेमतरं	-4249
▁गुणैर्यो	-4250
▁गुह्यतमं	-4251
▁घ्नतोऽपि	-4252
▁छित्त्वा	-4253
▁तत्त्वेन	-4254
▁तदर्थीयं	-4255
▁तप्यन्ते	-4256
▁तवार्जुन	-4257
▁तवेदंमया	-4258
▁तेजस्तेज	-4259
▁त्यक्त्व	-4260
▁त्याज्यं	-4261
▁त्वक्षरम	-4262
▁त्वरमाणा	-4263
▁दिव्यान्	-4264
▁दृढव्रता	-4265
▁दृष्ट्वा	-4266
▁द्रष्टुम	-4267
▁ध्यायन्त	-4268
▁नमस्कुरु	-4269
▁नराधमान्	-4270
▁निगच्छति	-4271
▁नियोजयसि	-4272
▁परस्तात्	-4273
▁पापादस्म	-4274
▁प्रतिजान	-4275
▁प्राणान्	-4276
▁प्रारभते	-4277
▁ब्रह्मणि	-4278
▁ब्रह्मणो	-4279
▁ब्राह्मण	-4280
▁भगवन्मया	-4281
▁भयानकानि	-4282
▁भवार्जुन	-4283
▁भवोऽभावो	-4284
▁मद्भक्तो	-4285
▁मनसाचलेन	-4286
▁महत्पापं	-4287
▁महात्मान	-4288
▁मामिकाम्	-4289
▁मेऽच्युत	-4290
▁यज्ञविदो	-4291
▁यदीदृशम्	-4292
▁युज्यस्व	-4293
▁योगेश्वर	-4294
▁रुद्ध्वा	-4295
▁विनश्यति	-4296
▁विनियम्य	-4297
▁विश्वस्य	-4298
▁विसृजामि	-4299
▁व्यवसिता	-4300
▁शरीरस्थं	-4301
▁शशिसूर्य	-4302
▁श्रीमतां	-4303
▁संसिद्धि	-4304
▁सचराचरम्	-4305
▁सदित्येत	-4306
▁सन्न्यास	-4307
▁समबुद्धय	-4308
▁सर्वेषां	-4309
▁साधुभावे	-4310
▁सूतपुत्र	-4311
▁हृषीकेशो	-4312
आत्मसंस्थं	-4313
एकोऽथवाप्य	-4314
करश्चास्मि	-4315
ज्ञानाग्नि	-4316
तत्क्षामये	-4317
द्बुद्ध्या	-4318
धिपूर्वकम्	-4319
नकाङ्क्षिण	-4320
निपालसङ्घै	-4321
निर्देश्यम	-4322
निर्मुक्ता	-4323
नुष्ठितात्	-4324
न्तरचारिणौ	-4325
न्नाप्नोति	-4326
पश्यत्यकृत	-4327
प्राणापानौ	-4328
बुद्धिर्यो	-4329
भिरक्षितम्	-4330
मलान्प्रति	-4331
मादिदेवमजं	-4332
मानापमानयो	-4333
मिन्द्रिया	-4334
मेवाभिमुखा	-4335
यच्चावहासा	-4336
यद्यदाचरति	-4337
विज्वलन्ति	-4338
विवर्जितम्	-4339
व्यमस्मिन्	-4340
शिरोग्रीवं	-4341
श्रद्दधाना	-4342
सञ्ज्ञितम्	-4343
सन्नियम्ये	-4344
सर्वभूतानि	-4345
सर्वयोनिषु	-4346
सृजन्गृह्ण	-4347
स्तथासौसहा	-4348
स्तदोच्यते	-4349
स्मदीयैरपि	-4350
स्विनामहम्	-4351
ात्प्रणयेन	-4352
ायामपरायणा	-4353
ीत्युपधारय	-4354
ुरिन्द्रिय	-4355
ेऽमृतोपमम्	-4356
ोऽम्बुवेगा	-4357
्यतेनान्तो	-4358
्युपपद्यते	-4359
▁अद्वेष्टा	-4360
▁इन्द्रिया	-4361
▁कर्मयोगेन	-4362
▁किञ्चिदपि	-4363
▁किमुच्यते	-4364
▁किल्बिषम्	-4365
▁कुर्वन्ति	-4366
▁चिन्तयेत्	-4367
▁ज्ञेयोऽसि	-4368
▁तज्ज्ञानं	-4369
▁तत्समक्षं	-4370
▁तद्ब्रह्म	-4371
▁तद्विद्धि	-4372
▁त्रैलोक्य	-4373
▁त्वदन्येन	-4374
▁दधाम्यहम्	-4375
▁दुर्लभतरं	-4376
▁दृढनिश्चय	-4377
▁देवमनन्तं	-4378
▁नरलोकवीरा	-4379
▁नियताहारा	-4380
▁निवृत्तिं	-4381
▁निश्चित्य	-4382
▁परिचक्षते	-4383
▁पश्यन्त्य	-4384
▁पुनस्तानि	-4385
▁पुष्पितां	-4386
▁पृथग्विधा	-4387
▁पृथिव्यां	-4388
▁प्रकाशयति	-4389
▁प्रणश्यति	-4390
▁प्रदीप्तं	-4391
▁प्रवर्तते	-4392
▁प्रविभक्त	-4393
▁प्रवृद्धे	-4394
▁बुद्धियोग	-4395
▁महर्षीणां	-4396
▁मुक्तसङ्ग	-4397
▁मुच्यन्ते	-4398
▁मूढयोनिषु	-4399
▁यज्ञदानतप	-4400
▁यज्ञशिष्ट	-4401
▁योगभ्रष्ट	-4402
▁योगयुक्तो	-4403
▁योगिनामेव	-4404
▁योधमुख्यै	-4405
▁रूपमस्येह	-4406
▁लोकस्तदनु	-4407
▁वक्त्राणि	-4408
▁वर्णसङ्कर	-4409
▁वर्त्मानु	-4410
▁वार्ष्णेय	-4411
▁विगतस्पृह	-4412
▁विद्यामहं	-4413
▁शनैरुपरमे	-4414
▁शरीरवाङ्म	-4415
▁शास्त्रवि	-4416
▁संन्यस्या	-4417
▁संसिद्धिं	-4418
▁सदात्मानं	-4419
▁सदित्येवा	-4420
▁सन्तुष्टो	-4421
▁सम्बन्धिन	-4422
▁सम्भवन्ति	-4423
▁सर्वभावेन	-4424
▁सिद्धानां	-4425
▁स्वर्गपरा	-4426
अश्वत्थमेनं	-4427
इन्द्रियाणि	-4428
उपविश्यासने	-4429
क्रियाविशेष	-4430
घ्रन्नश्नन्	-4431
ज्यसुखलोभेन	-4432
तुल्यनिन्दा	-4433
तुल्यप्रिया	-4434
दम्भाहङ्कार	-4435
दिव्यमाल्या	-4436
धिमुत्सृज्य	-4437
निन्दात्मसं	-4438
न्स्पृशञ्जि	-4439
पश्यञ्शृण्व	-4440
प्रभवान्काम	-4441
प्रवर्तन्ते	-4442
भूतिभिर्लोक	-4443
मनुशासितारम	-4444
मामेवैष्यसि	-4445
मुपाश्रित्य	-4446
यज्ज्ञात्वा	-4447
यावदेतान्नि	-4448
स्त्रविहितं	-4449
स्त्रीन्गुण	-4450
स्मसात्कुरु	-4451
ात्सञ्जायते	-4452
ान्स्वधर्मो	-4453
ेणाधिगच्छति	-4454
▁अनेकवक्त्र	-4455
▁इत्युच्यते	-4456
▁काङ्क्षितं	-4457
▁कुलघ्नानां	-4458
▁चूर्णितैरु	-4459
▁जन्मकर्मफल	-4460
▁तत्त्ववित्	-4461
▁तस्मात्त्व	-4462
▁धारयन्नचलं	-4463
▁धीरस्तुल्य	-4464
▁नाभिजानाति	-4465
▁नासिकाग्रं	-4466
▁निबध्नन्ति	-4467
▁नियतात्मभि	-4468
▁निवर्तन्ति	-4469
▁निवृत्तानि	-4470
▁नोपलिप्यते	-4471
▁परिकीर्तित	-4472
▁पुण्यकृतां	-4473
▁प्रपद्येयत	-4474
▁प्रविशन्ति	-4475
▁प्रव्यथितं	-4476
▁प्रोक्तवान	-4477
▁बहिर्बाह्य	-4478
▁ब्रह्मकर्म	-4479
▁मनुष्याणां	-4480
▁मय्यावेशित	-4481
▁मोक्ष्यसेऽ	-4482
▁यज्ञक्षपित	-4483
▁यत्प्रमाणं	-4484
▁यद्यप्येते	-4485
▁यस्मिन्गता	-4486
▁योनिर्महद्	-4487
▁रणसमुद्यमे	-4488
▁विश्वमनन्त	-4489
▁शस्त्रपाणय	-4490
▁श्रेयोऽहमा	-4491
▁संन्न्यस्य	-4492
▁समुद्धर्ता	-4493
▁सर्वानशेषत	-4494
▁सात्त्विका	-4495
▁सात्त्विकी	-4496
कर्मफलत्यागं	-4497
गमचिन्त्यञ्च	-4498
तदोत्तमविदां	-4499
त्प्रयुज्यते	-4500
द्भुतदर्शनम्	-4501
प्राणापानगती	-4502
भूतग्राममिमं	-4503
मचलन्ध्रुवम्	-4504
मानमदान्विता	-4505
मामप्राप्यैव	-4506
विहारशय्यासन	-4507
श्रयेदस्मान्	-4508
समनुस्मरेद्य	-4509
सम्प्रेक्ष्य	-4510
सर्वेऽप्येते	-4511
स्तुतिर्मौनी	-4512
ानिमांस्त्वं	-4513
िर्नारदस्तथा	-4514
ुश्चैवान्तरे	-4515
▁इन्द्रियाणि	-4516
▁इमेऽवस्थिता	-4517
▁कर्मसङ्गिषु	-4518
▁कारणमुच्यते	-4519
▁किमध्यात्मं	-4520
▁कृत्स्नमवशं	-4521
▁क्रियमाणानि	-4522
▁चिन्त्योऽसि	-4523
▁तत्परिमार्ग	-4524
▁तत्रैकाग्रं	-4525
▁तुष्टिस्तपो	-4526
▁द्वन्द्वमोह	-4527
▁धृतिगृहीतया	-4528
▁नित्ययुक्ता	-4529
▁परिचिन्तयन्	-4530
▁पुरुषमुपैति	-4531
▁प्रपश्यद्भि	-4532
▁प्राणेऽपानं	-4533
▁प्राप्स्यसि	-4534
▁भावमजानन्तो	-4535
▁महद्योनिरहं	-4536
▁मित्रद्रोहे	-4537
▁यान्त्यधमां	-4538
▁युञ्जन्नेवं	-4539
▁योगमैश्वरम्	-4540
▁योद्धुकामान	-4541
▁योनिमापन्ना	-4542
▁योऽवतिष्ठति	-4543
▁लोभोपहतचेतस	-4544
▁वर्तमानोऽपि	-4545
▁समुपस्थितम्	-4546
आहुस्त्वामृषय	-4547
उदासीनवदासीनो	-4548
केचिद्विलग्ना	-4549
गन्धानुलेपनम्	-4550
चिन्त्यरूपमाद	-4551
ज्यमहमग्निरहं	-4552
धार्तराष्ट्रा	-4553
निर्द्वन्द्वो	-4554
नोभिर्यत्कर्म	-4555
न्कर्तुमर्हसि	-4556
न्त्यविपश्चित	-4557
न्द्रियग्रामं	-4558
बुद्धित्वान्न	-4559
भ्रुवोर्मध्ये	-4560
मनसैवेन्द्रिय	-4561
मनोबुद्धिर्मु	-4562
योगयुक्तात्मा	-4563
र्थेभ्यस्तस्य	-4564
व्यामिश्रेणेव	-4565
स्तत्तदेवेतरो	-4566
स्मिन्मधुसूदन	-4567
ुमर्हस्यशेषेण	-4568
ेन्द्रियक्रिय	-4569
▁गुणकर्मविभाग	-4570
▁जगत्कृत्स्नं	-4571
▁ज्ञानविज्ञान	-4572
▁ज्ञेयमस्माभि	-4573
▁तस्मिन्गर्भं	-4574
▁नचिरात्पार्थ	-4575
▁नान्यदस्तीति	-4576
▁परधर्मात्स्व	-4577
▁पुत्रास्तथैव	-4578
▁प्रलीनस्तमसि	-4579
▁प्रवक्ष्यामि	-4580
▁प्राणमावेश्य	-4581
▁मामप्रतीकारम	-4582
▁योगिंस्त्वां	-4583
▁लोकानुषित्वा	-4584
▁वक्त्राण्यभि	-4585
▁विसृजाम्यहम्	-4586
▁सङ्गविवर्जित	-4587
▁सम्प्रतिष्ठा	-4588
▁सर्वेन्द्रिय	-4589
▁स्वजनमुद्यता	-4590
▁स्वामवष्टभ्य	-4591
▁हन्युस्तन्मे	-4592
अनेकदिव्याभरणं	-4593
क्षिपाम्यजस्रम	-4594
निर्मोक्षपरायण	-4595
मात्मविशुद्धये	-4596
र्ज्ञानमसम्मोह	-4597
र्थमसत्कृतोऽसि	-4598
सर्वाश्चर्यमयं	-4599
सुदुर्दर्शमिदं	-4600
ाकाङ्क्षिभिर्य	-4601
ान्निवर्तितुम्	-4602
िषन्निमिषन्नपि	-4603
▁कायशिरोग्रीवं	-4604
▁चेत्कर्मणस्ते	-4605
▁तस्मान्नार्हा	-4606
▁धृतराष्ट्रस्य	-4607
▁पतङ्गाविशन्ति	-4608
▁पवित्रमोङ्कार	-4609
▁पापमवाप्स्यसि	-4610
▁प्राप्नुवन्ति	-4611
▁बहवोऽम्बुवेगा	-4612
▁भूतग्राममचेतस	-4613
▁भोगैर्जीवितेन	-4614
▁युञ्ज्याद्योग	-4615
▁स्याज्जनार्दन	-4616
▁हन्तुमिच्छामि	-4617
एकोऽथवाप्यच्युत	-4618
दंष्ट्राकरालानि	-4619
मन्त्रोऽहमहमेवा	-4620
लोकसंग्रहमेवापि	-4621
शुभानासुरीष्वेव	-4622
सिद्ध्यसिद्ध्यो	-4623
स्तुल्यस्तुल्यो	-4624
हत्वैतानाततायिन	-4625
ानेकोद्यतायुधम्	-4626
ान्स्वबान्धवान्	-4627
ीन्द्रियार्थेषु	-4628
▁अशास्त्रविहितं	-4629
▁कर्तारमात्मानं	-4630
▁दर्शनकाङ्क्षिण	-4631
▁प्रकृतेर्वशात्	-4632
▁प्रोक्तमधिदैवं	-4633
▁ब्रह्मनिर्वाणं	-4634
▁भोगैश्वर्यगतिं	-4635
▁मित्रारिपक्षयो	-4636
▁शान्तिमाप्नोति	-4637
▁श्रद्धयान्विता	-4638
▁सम्प्रवृत्तानि	-4639
▁सम्बन्धिनस्तथा	-4640
▁स्थिरमतिर्भक्त	-4641
▁स्वधाहमहमौषधम्	-4642
मलान्प्रतिपद्यते	-4643
मूलमसङ्गशस्त्रेण	-4644
यद्राज्यसुखलोभेन	-4645
रेषुसन्दृश्यन्ते	-4646
समुद्रमेवाभिमुखा	-4647
सर्वकर्मफलत्यागं	-4648
▁कामरागबलान्विता	-4649
▁किञ्चित्करोमीति	-4650
▁कुर्वन्नाप्नोति	-4651
▁तान्विद्ध्यासुर	-4652
▁त्वामहमप्रमेयम्	-4653
▁दिव्यमादिदेवमजं	-4654
▁दिशश्चानवलोकयन्	-4655
▁प्राणायामपरायणा	-4656
▁बुद्धिर्जनार्दन	-4657
▁ब्रह्मनिर्वाणमृ	-4658
▁मनसाचलेनभक्त्या	-4659
▁योद्धव्यमस्मिन्	-4660
▁लोकस्तदनुवर्तते	-4661
▁स्पर्शान्कृत्वा	-4662
:|	-4663
ंऽ	-4664
अघ	-4665
अय	-4666
आग	-4667
आश	-4668
एष	-4669
खे	-4670
गं	-4671
गप	-4672
गौ	-4673
घं	-4674
जग	-4675
जघ	-4676
जह	-4677
जि	-4678
ठो	-4679
तस	-4680
नभ	-4681
पत	-4682
पल	-4683
पी	-4684
पौ	-4685
भे	-4686
यज	-4687
यद	-4688
यन	-4689
यी	-4690
रू	-4691
लस	-4692
वर	-4693
वह	-4694
वृ	-4695
शत	-4696
सञ	-4697
सव	-4698
ऽन	-4699
कव	-4700
चं	-4701
तै	-4702
नर	-4703
बा	-4704
यौ	-4705
श्	-4706
सत	-4707
हो	-4708
ाअ	-4709
िभ	-4710
ीभ	-4711
ीव	-4712
ुध	-4713
ुश	-4714
ूष	-4715
ृग	-4716
ेप	-4717
ैध	-4718
ोक	-4719
ोण	-4720
ौन	-4721
्क	-4722
अजो	-4723
कमन	-4724
खमा	-4725
ख्य	-4726
गतो	-4727
गपर	-4728
गीष	-4729
घसू	-4730
चरं	-4731
चला	-4732
जति	-4733
ट्व	-4734
ड्य	-4735
णपर	-4736
णात	-4737
तान	-4738
थात	-4739
दवि	-4740
दित	-4741
दिह	-4742
धत्	-4743
धिर	-4744
धैव	-4745
ध्र	-4746
नाय	-4747
निव	-4748
नुं	-4749
नुर	-4750
पन्	-4751
मेद	-4752
मेष	-4753
म्प	-4754
म्ल	-4755
यमत	-4756
रसं	-4757
राम	-4758
राश	-4759
र्क	-4760
र्ल	-4761
लति	-4762
वद्	-4763
वित	-4764
विस	-4765
शेन	-4766
शोक	-4767
षित	-4768
सदु	-4769
सिं	-4770
हति	-4771
हात	-4772
हृष	-4773
ऽपि	-4774
ाग्	-4775
ातृ	-4776
ानल	-4777
ावद	-4778
ाशय	-4779
ासु	-4780
िणं	-4781
ितम	-4782
िमव	-4783
ीचं	-4784
ुंस	-4785
ुनै	-4786
ुरग	-4787
ुर्	-4788
ुषु	-4789
ूतं	-4790
ूनि	-4791
ून्	-4792
ूपा	-4793
ृती	-4794
ेषा	-4795
ैका	-4796
ैरह	-4797
ोगं	-4798
ोत्	-4799
कसं	-4800
ज्व	-4801
थाव	-4802
थित	-4803
लित	-4804
वात	-4805
विल	-4806
विव	-4807
श्म	-4808
ाम्	-4809
ितर	-4810
ितै	-4811
ृते	-4812
ोपज	-4813
्तं	-4814
्तो	-4815
्मप	-4816
्मा	-4817
्यत	-4818
्यम	-4819
्रं	-4820
्रे	-4821
▁24	-4822
▁अज	-4823
▁अत	-4824
▁अव	-4825
▁अस	-4826
▁आर	-4827
▁कं	-4828
▁कव	-4829
▁को	-4830
▁चै	-4831
▁छि	-4832
▁जप	-4833
▁तृ	-4834
▁तो	-4835
▁तौ	-4836
▁दै	-4837
▁नथ	-4838
▁नभ	-4839
▁नव	-4840
▁पण	-4841
▁पा	-4842
▁भै	-4843
▁मं	-4844
▁मृ	-4845
▁यम	-4846
▁यय	-4847
▁यौ	-4848
▁लि	-4849
▁ले	-4850
▁वर	-4851
▁शृ	-4852
▁सश	-4853
▁सै	-4854
ंससि	-4855
अतोऽ	-4856
अयति	-4857
कथयत	-4858
कामी	-4859
कीम्	-4860
कुले	-4861
गद्ग	-4862
गरीय	-4863
ङ्को	-4864
ङ्खं	-4865
जन्य	-4866
ज्ञो	-4867
ज्वर	-4868
णमपि	-4869
थ्या	-4870
दग्र	-4871
दिवि	-4872
दुरा	-4873
देभि	-4874
देशो	-4875
दैवो	-4876
द्दि	-4877
द्धन	-4878
द्धर	-4879
द्वै	-4880
धाया	-4881
धिकं	-4882
नयन्	-4883
नयेद	-4884
नीनि	-4885
परीत	-4886
पोऽन	-4887
बद्ध	-4888
बलार	-4889
बाहू	-4890
भजते	-4891
भेदं	-4892
मपाव	-4893
मपीह	-4894
मस्व	-4895
माति	-4896
माया	-4897
मितो	-4898
मौनं	-4899
तीं	-4900
तेय	-4901
तेश	-4902
पदै	-4903
मत्	-4904
मरी	-4905
मवश	-4906
हते	-4907
हीन	-4908
ातन	-4909
ेदत	-4910
ोपर	-4911
तिम्	-4912
त्रय	-4913
धृति	-4914
नतेय	-4915
नानि	-4916
न्सं	-4917
भयेन	-4918
माने	-4919
म्यं	-4920
यतेऽ	-4921
यत्र	-4922
यासं	-4923
योगौ	-4924
योरे	-4925
योर्	-4926
रक्ष	-4927
रणमन	-4928
रतां	-4929
रष्ट	-4930
रासु	-4931
र्तृ	-4932
र्बल	-4933
र्मम	-4934
र्मर	-4935
र्लि	-4936
लाभि	-4937
लाभौ	-4938
वादि	-4939
वाधि	-4940
वाला	-4941
विद्	-4942
विधै	-4943
शक्त	-4944
शलम्	-4945
शाद्	-4946
शुचौ	-4947
श्चो	-4948
श्वश	-4949
ष्टश	-4950
सञ्छ	-4951
सदम्	-4952
सन्त	-4953
समाह	-4954
सम्प	-4955
साङ्	-4956
सामन	-4957
सीमा	-4958
सुमा	-4959
स्यथ	-4960
स्वन	-4961
हन्त	-4962
ाणाय	-4963
ाण्य	-4964
ातुल	-4965
ानति	-4966
ानरो	-4967
ानिर	-4968
ाप्त	-4969
ामित	-4970
ामुप	-4971
ाविर	-4972
ासतो	-4973
ाहङ्	-4974
ाह्य	-4975
िरसा	-4976
ीक्ष	-4977
ीनाम	-4978
ुत्व	-4979
ुरनी	-4980
ुश्र	-4981
ूरेण	-4982
ेनून	-4983
ैरिण	-4984
ोग्य	-4985
ोऽभि	-4986
ोऽवि	-4987
ौत्र	-4988
ौषधी	-4989
्यकु	-4990
्यजु	-4991
्याह	-4992
्येऽ	-4993
्योग	-4994
्राण	-4995
्वता	-4996
्वपि	-4997
्वित	-4998
्व्य	-4999
जाल	-5000
यती	-5001
षां	-5002
ुवा	-5003
ोषो	-5004
▁दं	-5005
▁वश	-5006
खतरं	-5007
त्रि	-5008
दग्ध	-5009
भानि	-5010
भूता	-5011
यतीह	-5012
यष्ट	-5013
र्मन	-5014
र्मह	-5015
र्मा	-5016
र्षं	-5017
वाशय	-5018
ारदा	-5019
ोर्म	-5020
ोऽनु	-5021
्मनि	-5022
▁||1	-5023
▁अनि	-5024
▁इती	-5025
▁उपा	-5026
▁उभे	-5027
▁एनं	-5028
▁कथय	-5029
▁कम्	-5030
▁कां	-5031
▁कौम	-5032
▁क्व	-5033
▁खदा	-5034
▁गरी	-5035
▁गाम	-5036
▁चात	-5037
▁चैक	-5038
▁जया	-5039
▁जरा	-5040
▁जाग	-5041
▁जात	-5042
▁जाह	-5043
▁जेत	-5044
▁ततं	-5045
▁तदन	-5046
▁तवा	-5047
▁तां	-5048
▁तात	-5049
▁तेष	-5050
▁दात	-5051
▁दुर	-5052
▁द्य	-5053
▁नाग	-5054
▁नाद	-5055
▁न्प	-5056
▁न्य	-5057
▁भवे	-5058
▁भाष	-5059
▁भास	-5060
▁भेद	-5061
▁मतं	-5062
▁मनव	-5063
▁ममा	-5064
▁यद्	-5065
▁यात	-5066
▁युग	-5067
▁वशी	-5068
▁वित	-5069
▁शशी	-5070
▁शिष	-5071
▁शौर	-5072
▁समे	-5073
▁सुल	-5074
▁सुह	-5075
▁सेन	-5076
▁हतो	-5077
▁हवि	-5078
▁हिन	-5079
अतत्त	-5080
अत्ये	-5081
कथमेत	-5082
कभक्त	-5083
कामां	-5084
कुर्व	-5085
कृतेन	-5086
कृत्व	-5087
क्षवि	-5088
क्ष्ण	-5089
खयोनय	-5090
खसुखं	-5091
ङ्गान	-5092
चरस्य	-5093
चित्प	-5094
च्चैव	-5095
जघन्य	-5096
जहाति	-5097
ज्ञपू	-5098
ज्ञां	-5099
जोष	-5100
डया	-5101
तदा	-5102
तोद	-5103
याच	-5104
सहस	-5105
ारो	-5106
ीकं	-5107
ोहौ	-5108
▁शत	-5109
▁शी	-5110
क्तं	-5111
ज्ञै	-5112
निरत	-5113
लभते	-5114
ाभूत	-5115
ाशशत	-5116
ाहार	-5117
िराम	-5118
ुताश	-5119
ोकमु	-5120
्नेह	-5121
▁नार	-5122
▁पार	-5123
▁मार	-5124
▁विक	-5125
▁शमं	-5126
▁सन्	-5127
▁समि	-5128
▁समो	-5129
कश्चि	-5130
ञ्चलम	-5131
णादति	-5132
णिगणा	-5133
तथापि	-5134
तीनां	-5135
तोदके	-5136
तोऽयं	-5137
त्तपो	-5138
त्तेश	-5139
त्यम्	-5140
दमोहौ	-5141
दाक्ष	-5142
दानमप	-5143
दाहिन	-5144
दिष्ट	-5145
दीयते	-5146
द्यम्	-5147
नष्टो	-5148
नादिं	-5149
निर्ध	-5150
निर्व	-5151
न्तम्	-5152
न्तित	-5153
न्त्र	-5154
न्दति	-5155
न्देह	-5156
पत्रा	-5157
पितृण	-5158
पीडया	-5159
प्रजन	-5160
प्रेत	-5161
भवत्य	-5162
भृन्न	-5163
मनश्न	-5164
मय्या	-5165
मवस्थ	-5166
मसुखं	-5167
माणाय	-5168
मानपू	-5169
मावयो	-5170
मूर्ध	-5171
मेतेन	-5172
म्नां	-5173
यनेषु	-5174
यस्तु	-5175
याचरत	-5176
यादपि	-5177
योगीत	-5178
योरुभ	-5179
योरेव	-5180
रश्चा	-5181
रस्या	-5182
र्च्य	-5183
र्जित	-5184
र्पाण	-5185
र्यथा	-5186
र्यद्	-5187
र्यमा	-5188
र्हाव	-5189
लान्य	-5190
लिर्व	-5191
ल्पमे	-5192
वगच्छ	-5193
वसपत्	-5194
विश्य	-5195
विषाद	-5196
शरीरय	-5197
शुश्र	-5198
शोकाम	-5199
एका	-5200
दरं	-5201
राव	-5202
ृतो	-5203
ोऽप	-5204
ोऽय	-5205
ंश्च	-5206
इष्ट	-5207
करणं	-5208
ख्या	-5209
ण्या	-5210
निरा	-5211
न्या	-5212
पत्न	-5213
मतोऽ	-5214
रंशु	-5215
वमेव	-5216
वृतं	-5217
वेशय	-5218
शोऽथ	-5219
श्चर	-5220
स्यं	-5221
ाभाव	-5222
ैवां	-5223
्मया	-5224
्याण	-5225
्याद	-5226
▁तया	-5227
▁सत्	-5228
एकाकी	-5229
त्त्र	-5230
द्धोऽ	-5231
भविता	-5232
भूतां	-5233
रावतं	-5234
र्मोऽ	-5235
विदेव	-5236
विधान	-5237
शोत्त	-5238
श्रेय	-5239
षामपि	-5240
ष्टुं	-5241
समर्थ	-5242
सस्तु	-5243
सादान	-5244
सीदेय	-5245
सुखोऽ	-5246
सूत्र	-5247
स्काय	-5248
स्तत्	-5249
स्तमस	-5250
स्तेष	-5251
स्थमन	-5252
स्मयो	-5253
स्यति	-5254
हरश्च	-5255
हर्षं	-5256
हायोग	-5257
ांशेन	-5258
ाअध्य	-5259
ाणामा	-5260
ात्मक	-5261
ात्सा	-5262
ानर्थ	-5263
ान्तं	-5264
ान्मय	-5265
ान्सख	-5266
ाप्यु	-5267
ामकार	-5268
ामस्त	-5269
ामिना	-5270
ायज्ञ	-5271
ार्थय	-5272
ार्थे	-5273
ार्यु	-5274
ावच्छ	-5275
ाविरह	-5276
िणामे	-5277
िनीचं	-5278
िमन्त	-5279
िर्हि	-5280
िष्टं	-5281
ुक्तै	-5282
ुद्धं	-5283
ुयात्	-5284
ुहोषि	-5285
ून्भु	-5286
ृजिनं	-5287
ृत्या	-5288
ृत्वं	-5289
ैतान्	-5290
ैस्तु	-5291
ैस्ते	-5292
ोग्रा	-5293
ोषयति	-5294
ोऽत्य	-5295
ोऽन्त	-5296
ोऽल्प	-5297
ोऽस्त	-5298
ोऽस्य	-5299
मसि	-5300
मृष	-5301
येम	-5302
शले	-5303
ावे	-5304
ुशा	-5305
ोगत	-5306
ोगी	-5307
▁खे	-5308
▁वस	-5309
▁वो	-5310
थ्यै	-5311
धिना	-5312
न्हि	-5313
प्रो	-5314
▁ख्य	-5315
▁हित	-5316
कायैव	-5317
क्षरा	-5318
च्छया	-5319
त्तान	-5320
थ्यैष	-5321
दात्म	-5322
पुष्ण	-5323
बहुशा	-5324
मृषीं	-5325
मोहाद	-5326
राक्ष	-5327
विद्भ	-5328
विन्न	-5329
श्चोष	-5330
सङ्गं	-5331
सात्म	-5332
ात्मश	-5333
ौपम्य	-5334
्णाति	-5335
्यन्त	-5336
्यादा	-5337
्यादि	-5338
्याया	-5339
्यासा	-5340
्योगे	-5341
्लानि	-5342
्वेमं	-5343
्वैनं	-5344
▁73||	-5345
▁76||	-5346
▁77||	-5347
▁78||	-5348
▁अक्ष	-5349
▁अच्छ	-5350
▁अन्त	-5351
▁आहार	-5352
▁कस्य	-5353
▁किमा	-5354
▁गतिं	-5355
▁गीतं	-5356
▁चत्व	-5357
▁चाति	-5358
▁चापं	-5359
▁चायं	-5360
▁चावे	-5361
▁जयेम	-5362
▁जाने	-5363
▁जिजी	-5364
▁ज्या	-5365
▁तत्क	-5366
▁दानै	-5367
▁दिशो	-5368
▁देवद	-5369
▁देहं	-5370
▁देहभ	-5371
▁द्या	-5372
▁द्वा	-5373
▁नातप	-5374
▁नासं	-5375
▁नाहं	-5376
▁निरु	-5377
▁नैति	-5378
▁पर्ज	-5379
▁प्रन	-5380
▁प्रय	-5381
▁प्रो	-5382
▁बहून	-5383
▁भयाभ	-5384
▁भवतो	-5385
▁भाषा	-5386
▁भूतं	-5387
▁भूमा	-5388
▁महतो	-5389
▁मुखं	-5390
▁मुखे	-5391
▁मुनि	-5392
▁मोघं	-5393
▁यतता	-5394
▁यादृ	-5395
▁रसनं	-5396
▁लभ्य	-5397
▁वशमा	-5398
▁वसवो	-5399
खेन	-5400
ेशे	-5401
चलां	-5402
त्रे	-5403
धान्	-5404
पत्र	-5405
योगत	-5406
सून्	-5407
ानुर	-5408
ेतदु	-5409
ेनमा	-5410
ोगुण	-5411
▁निय	-5412
▁मेव	-5413
▁शङ्	-5414
चिर्द	-5415
चेतसो	-5416
द्राज	-5417
धिकतर	-5418
मानान	-5419
वापृथ	-5420
ाचलां	-5421
ान्मन	-5422
ुकामे	-5423
्नोति	-5424
▁अज्ञ	-5425
▁देशे	-5426
▁ममाप	-5427
▁महति	-5428
▁वासु	-5429
▁विना	-5430
▁विषा	-5431
▁शर्म	-5432
▁शश्व	-5433
▁शाखा	-5434
▁सञ्ज	-5435
▁सत्त	-5436
▁सन्त	-5437
▁सहजं	-5438
▁साङ्	-5439
▁सुखम	-5440
▁सुहृ	-5441
▁स्यु	-5442
▁हरति	-5443
ंसगद्ग	-5444
अनादिम	-5445
असक्तं	-5446
आस्थित	-5447
एवंरूप	-5448
करिष्य	-5449
कीर्षु	-5450
कृतकृत	-5451
क्त्वा	-5452
क्रोधा	-5453
क्षिता	-5454
क्षेमं	-5455
क्ष्ये	-5456
क्ष्वा	-5457
खमाप्त	-5458
गुणान्	-5459
गृह्णम	-5460
गोमुखा	-5461
ग्धान्	-5462
ङ्ककार	-5463
चितुमि	-5464
जान्वि	-5465
जार्थं	-5466
जोत्तम	-5467
ज्ञातं	-5468
णांश्च	-5469
तद्वत्	-5470
तस्तेन	-5471
तीश्वर	-5472
त्तासि	-5473
त्तेशो	-5474
त्त्वं	-5475
त्त्वय	-5476
त्थिता	-5477
त्यक्ष	-5478
त्रिया	-5479
दानेषु	-5480
दाश्रय	-5481
दिव्यं	-5482
दोषमपि	-5483
द्देशत	-5484
द्यच्छ	-5485
द्यत्त	-5486
द्यस्य	-5487
द्वारे	-5488
द्विजे	-5489
ध्नाति	-5490
नादयन्	-5491
नावबोध	-5492
नुद्वि	-5493
नुस्मर	-5494
न्कर्म	-5495
न्तिकं	-5496
न्त्यु	-5497
न्निदम	-5498
परस्पर	-5499
करं	-5500
थैव	-5501
शाप	-5502
षीद	-5503
सना	-5504
ापं	-5505
िणे	-5506
ोहं	-5507
कामह	-5508
तव्य	-5509
त्सम	-5510
नासि	-5511
भवत्	-5512
मव्य	-5513
र्बह	-5514
शिरो	-5515
समाप	-5516
ापाप	-5517
िमाप	-5518
ुतिम	-5519
ुशना	-5520
्यैव	-5521
▁अना	-5522
▁परो	-5523
दुष्क	-5524
मत्सर	-5525
मृतम्	-5526
विषीद	-5527
व्यान	-5528
ुद्धो	-5529
ृद्धं	-5530
ेवाहं	-5531
्यविष	-5532
्यासि	-5533
▁आशाप	-5534
▁देहा	-5535
▁परित	-5536
▁मेरु	-5537
▁यस्म	-5538
▁वेदे	-5539
▁सव्य	-5540
अज्ञान	-5541
कारिणे	-5542
कृतिनो	-5543
क्षस्व	-5544
ङ्ख्यै	-5545
चक्षणा	-5546
त्कामह	-5547
द्वैधा	-5548
निबध्न	-5549
प्रमुख	-5550
बन्धून	-5551
भक्ताय	-5552
भक्तिं	-5553
भोगान्	-5554
भ्यसूय	-5555
भ्रमिव	-5556
भ्रातृ	-5557
मतीतोऽ	-5558
मसृष्ट	-5559
मासुरी	-5560
मित्तम	-5561
मिष्टं	-5562
मुक्तं	-5563
मुद्भव	-5564
मोक्षण	-5565
यानन्य	-5566
यान्ति	-5567
रतिरेव	-5568
रसवर्ज	-5569
रासदम्	-5570
रिसूदन	-5571
र्कद्य	-5572
र्थमपि	-5573
र्थमहं	-5574
र्वर्ण	-5575
र्विधा	-5576
र्षभयो	-5577
र्षोऽह	-5578
लस्यनि	-5579
लोकत्र	-5580
वानीकं	-5581
वियोगं	-5582
विवर्ध	-5583
वीरान्	-5584
व्योरि	-5585
श्चाभि	-5586
श्नासि	-5587
श्रिता	-5588
षीकेशं	-5589
ष्टान्	-5590
ष्यत्य	-5591
सनादेव	-5592
सर्वां	-5593
सर्वान	-5594
सिष्णु	-5595
सुखप्र	-5596
स्तत्र	-5597
स्तस्म	-5598
स्तिनि	-5599
गोप	-5600
मुन	-5601
वरं	-5602
ायत	-5603
ायै	-5604
ुनय	-5605
ेयु	-5606
▁गज	-5607
आर्त	-5608
ग्धा	-5609
तपसा	-5610
द्रं	-5611
धनमी	-5612
र्ते	-5613
र्थं	-5614
ाणुर	-5615
ायया	-5616
▁गवि	-5617
▁गाय	-5618
▁चाय	-5619
▁बोध	-5620
आर्तो	-5621
गोप्त	-5622
ज्ञाय	-5623
दपाने	-5624
निद्र	-5625
मुखम्	-5626
लमिदं	-5627
ात्यज	-5628
ावन्त	-5629
ेयमित	-5630
्यापो	-5631
▁जाता	-5632
▁निर्	-5633
▁मन्द	-5634
▁महता	-5635
▁मुनय	-5636
▁मुमु	-5637
▁वेगं	-5638
तदर्थं	-5639
द्रव्य	-5640
बुद्धौ	-5641
भ्यधिक	-5642
मुपायत	-5643
मूर्ते	-5644
राज्यं	-5645
र्जुनं	-5646
र्थव्य	-5647
र्वाणो	-5648
स्त्वन	-5649
स्त्वा	-5650
स्यात्	-5651
हमप्सु	-5652
हर्षाम	-5653
ाणुरचल	-5654
ात्म्य	-5655
ात्रास	-5656
ाद्ध्य	-5657
ान्तां	-5658
ान्देव	-5659
ान्भूत	-5660
ान्मया	-5661
ान्श्र	-5662
ान्समी	-5663
ाप्तुं	-5664
ामृतभु	-5665
ायैभ्य	-5666
ारम्भा	-5667
ार्थमन	-5668
ितमराग	-5669
ितात्म	-5670
िरनन्त	-5671
ीयन्ते	-5672
ुनानेन	-5673
ुपुत्र	-5674
ुप्तपि	-5675
ुरुक्ष	-5676
ुरुद्य	-5677
ुरुष्व	-5678
ुर्यां	-5679
ुष्वपि	-5680
ृगुरहं	-5681
ृणन्ति	-5682
ृण्वतो	-5683
ृथग्वि	-5684
ेनार्थ	-5685
ेष्यते	-5686
ैरिष्ट	-5687
ैर्भाव	-5688
ैर्विध	-5689
ैवाभ्य	-5690
ैस्त्र	-5691
ोतिश्र	-5692
ोहमेवं	-5693
ोऽभिभव	-5694
ोऽयमक्	-5695
ोऽयमवि	-5696
ोऽहमेव	-5697
्यानेन	-5698
्युत्थ	-5699
भिन	-5700
षेत	-5701
ाखि	-5702
ाभि	-5703
ावग	-5704
ेतद	-5705
ोषण	-5706
▁47	-5707
▁छल	-5708
कराव	-5709
न्यो	-5710
परमा	-5711
भिरा	-5712
मोहय	-5713
ाणमी	-5714
ावान	-5715
ृथग्	-5716
ेतना	-5717
ेतां	-5718
्यपि	-5719
▁शमो	-5720
कर्मा	-5721
क्षेण	-5722
तैर्द	-5723
धिस्थ	-5724
नाभिन	-5725
पृथग्	-5726
मन्ति	-5727
मामका	-5728
मेदम्	-5729
यज्ञो	-5730
राणां	-5731
वदल्प	-5732
वानेत	-5733
विग्न	-5734
सकराव	-5735
साश्च	-5736
ाखिलं	-5737
ार्थी	-5738
ावगमं	-5739
ुद्धे	-5740
▁अनाद	-5741
▁आधत्	-5742
▁दण्ड	-5743
▁परिण	-5744
▁सङ्घ	-5745
कैर्लि	-5746
च्छोषण	-5747
देहेषु	-5748
न्यानि	-5749
वदल्पं	-5750
संयोगा	-5751
स्यकृत	-5752
ाणमीशं	-5753
्युत्स	-5754
्रहस्त	-5755
्वार्थ	-5756
्वास्य	-5757
्सत्वं	-5758
▁अथैतद	-5759
▁आख्या	-5760
▁आवृतं	-5761
▁एतावद	-5762
▁एवेति	-5763
▁कर्मच	-5764
▁कर्मे	-5765
▁कश्चि	-5766
▁क्लेद	-5767
▁क्षयं	-5768
▁गुरुण	-5769
▁चतेजो	-5770
▁चास्य	-5771
▁चित्र	-5772
▁चेत्व	-5773
▁छिन्द	-5774
▁जगतोऽ	-5775
▁जन्तव	-5776
▁जयाजय	-5777
▁जयेयु	-5778
▁तत्ते	-5779
▁तत्पर	-5780
▁तत्सद	-5781
▁तमाहु	-5782
▁तृप्त	-5783
▁तेऽहं	-5784
▁तैर्ज	-5785
▁त्वहं	-5786
▁त्विद	-5787
▁दण्डो	-5788
▁दशैकं	-5789
▁दानवा	-5790
▁देवता	-5791
▁देववर	-5792
▁दोषेण	-5793
▁नात्य	-5794
▁नान्त	-5795
▁नाहङ्	-5796
▁निधनं	-5797
▁निर्व	-5798
▁निवास	-5799
करम	-5800
जसा	-5801
दिव	-5802
यनै	-5803
वदे	-5804
ाहु	-5805
ियं	-5806
उवाच	-5807
नस्थ	-5808
नाशय	-5809
मासा	-5810
वदेक	-5811
ष्ठि	-5812
ानीन	-5813
ोवाच	-5814
▁माह	-5815
▁रजो	-5816
कृतिन	-5817
द्देव	-5818
मामुप	-5819
मेयां	-5820
मोजसा	-5821
यद्वा	-5822
लादिव	-5823
वाच्य	-5824
विष्य	-5825
स्थान	-5826
हंवाद	-5827
हन्ते	-5828
ान्ता	-5829
ान्ते	-5830
▁फलमु	-5831
▁मलेन	-5832
▁सप्त	-5833
कृतीनि	-5834
त्प्रव	-5835
ध्ययनै	-5836
मन्तरं	-5837
मुक्तो	-5838
योपेतो	-5839
र्थ्यं	-5840
स्याहु	-5841
हंवादी	-5842
हमोजसा	-5843
ानचेतस	-5844
ासनस्थ	-5845
िदस्ति	-5846
ैतद्वि	-5847
▁||1||	-5848
▁कपिलो	-5849
▁क्ष्व	-5850
▁निहता	-5851
▁नीतिर	-5852
▁नैनां	-5853
▁नैवेह	-5854
▁पत्रं	-5855
▁परतरं	-5856
▁पाञ्च	-5857
▁पात्र	-5858
▁पितरो	-5859
▁पुनर्	-5860
▁पृथग्	-5861
▁पृष्ठ	-5862
▁प्रीय	-5863
▁भर्ता	-5864
▁भाषसे	-5865
▁मद्भा	-5866
▁मनुरि	-5867
▁महान्	-5868
▁मानवा	-5869
▁मिश्र	-5870
▁मोघाश	-5871
▁यतश्च	-5872
▁यत्कर	-5873
▁यद्वि	-5874
▁ययेदं	-5875
▁यस्तं	-5876
▁योक्त	-5877
▁योगवि	-5878
▁योगोऽ	-5879
▁रूपमु	-5880
▁लभस्व	-5881
▁वर्ते	-5882
▁वर्षं	-5883
▁वह्नि	-5884
▁विकम्	-5885
▁विद्ध	-5886
▁विद्व	-5887
▁विषमे	-5888
▁विष्ठ	-5889
▁वैश्य	-5890
▁वैश्व	-5891
▁व्यथा	-5892
▁शङ्खौ	-5893
▁शरणमन	-5894
▁शौचमा	-5895
▁संज्ञ	-5896
▁संशित	-5897
▁संस्त	-5898
▁समासत	-5899
खसं	-5900
पणा	-5901
उच्छ	-5902
दासि	-5903
परतं	-5904
परां	-5905
बाहो	-5906
मिरा	-5907
योगो	-5908
रिवा	-5909
हेतव	-5910
ुमतो	-5911
ेशोऽ	-5912
▁असं	-5913
▁कदा	-5914
▁चाश	-5915
▁तमो	-5916
एकत्व	-5917
जन्यं	-5918
तेजसा	-5919
न्दते	-5920
परस्य	-5921
मृश्य	-5922
सुखम्	-5923
ानराज	-5924
ान्पर	-5925
ास्ति	-5926
ुक्ते	-5927
ोक्तृ	-5928
्यतित	-5929
▁75||	-5930
▁दहति	-5931
▁योगा	-5932
णपरमां	-5933
णिज्यं	-5934
दुपरतं	-5935
यत्त्व	-5936
ल्लोका	-5937
ात्मपर	-5938
्विच्छ	-5939
्विष्ट	-5940
▁असंयत	-5941
▁कदाचि	-5942
▁कृपणा	-5943
▁ज्ञात	-5944
▁ददासि	-5945
▁सम्प्	-5946
▁सर्गे	-5947
▁सर्गो	-5948
▁सर्वग	-5949
▁सेवते	-5950
▁स्मृत	-5951
▁स्वया	-5952
▁स्वेन	-5953
▁हानिर	-5954
▁हितम्	-5955
▁हृषित	-5956
▁ह्यवश	-5957
अपरस्पर	-5958
असत्कृत	-5959
असम्मूढ	-5960
एकत्वेन	-5961
एतच्छ्र	-5962
एतैर्वि	-5963
कक्रिया	-5964
कर्तारं	-5965
कर्मेति	-5966
कार्यते	-5967
कुशोत्त	-5968
केचिद्भ	-5969
क्षिणम्	-5970
क्षेऽहं	-5971
क्ष्णरू	-5972
खसंज्ञै	-5973
गतप्राण	-5974
गन्धर्व	-5975
गोप्तास	-5976
ग्निर्न	-5977
ग्निर्भ	-5978
चिकीर्ष	-5979
च्यमानम	-5980
जानीयां	-5981
जायन्ते	-5982
ज्ज्ञात	-5983
ज्ञात्व	-5984
ज्यमिति	-5985
ततस्ततो	-5986
तत्देवा	-5987
तेजोमयं	-5988
त्वात्त	-5989
दव्यक्त	-5990
दाहृत्य	-5991
दिष्टम्	-5992
दोषोपहत	-5993
द्दिश्य	-5994
द्भुतम्	-5995
द्यज्ञा	-5996
द्योवेद	-5997
द्वांसो	-5998
द्विपरि	-5999
खाल	-6000
जयो	-6001
थिन	-6002
ीता	-6003
ुमन	-6004
ोनम	-6005
आद्य	-6006
थिनौ	-6007
धिपा	-6008
मनसं	-6009
मयैव	-6010
र्धर	-6011
ानुप	-6012
ाशिन	-6013
ेद्य	-6014
ोहनं	-6015
▁राम	-6016
अपश्य	-6017
खालयम	-6018
त्यया	-6019
द्योऽ	-6020
धाश्च	-6021
मान्म	-6022
येषां	-6023
व्ययं	-6024
ष्णती	-6025
ामिमा	-6026
ुतिभि	-6027
ुर्धर	-6028
ोनमोऽ	-6029
्कन्द	-6030
्रिभि	-6031
▁उत्स	-6032
▁गुरु	-6033
▁तन्म	-6034
▁त्वम	-6035
▁द्वौ	-6036
▁पापा	-6037
▁महाश	-6038
ज्योति	-6039
तन्द्र	-6040
मदत्ति	-6041
मपोहनं	-6042
मानश्च	-6043
योक्तं	-6044
रष्टधा	-6045
ियज्ञं	-6046
▁चान्य	-6047
▁त्वया	-6048
▁त्वेव	-6049
▁महानु	-6050
दित्यान	-6051
द्ग्राह	-6052
द्यन्ते	-6053
द्योऽशो	-6054
द्वेदित	-6055
धानामहं	-6056
धिष्ठान	-6057
ध्यान्त	-6058
नन्तरूप	-6059
नामन्ते	-6060
नार्थाय	-6061
निरीक्ष	-6062
निर्धूत	-6063
न्दांसि	-6064
पन्थिनौ	-6065
पपद्यते	-6066
पुत्रेण	-6067
पूर्वम्	-6068
प्तव्यं	-6069
प्यशक्त	-6070
प्रमादा	-6071
ब्रवीमि	-6072
भावस्थो	-6073
भिर्गुण	-6074
भूतभावो	-6075
भूतात्म	-6076
भूतानां	-6077
भ्यासेन	-6078
मद्भुतं	-6079
मयैवैते	-6080
मव्ययमी	-6081
महङ्कार	-6082
मात्मेत	-6083
माद्यंन	-6084
माद्यंय	-6085
मानस्तु	-6086
मायासमा	-6087
मावृतम्	-6088
मूढोऽयं	-6089
मृच्छति	-6090
मृतत्वा	-6091
मृतस्या	-6092
मेतेषां	-6093
मेवापरे	-6094
मोऽग्नि	-6095
म्पन्ति	-6096
यज्ञस्य	-6097
यन्तश्च	-6098
यममास्थ	-6099
▁इव	-6100
भूतभ	-6101
र्यत	-6102
षष्ठ	-6103
ाननं	-6104
▁मतो	-6105
▁वाय	-6106
▁हरे	-6107
किञ्च	-6108
तीहैव	-6109
न्मत्	-6110
न्माम	-6111
प्रदि	-6112
भ्योऽ	-6113
वसितो	-6114
स्वकं	-6115
हमिदं	-6116
ानभिस	-6117
ित्यव	-6118
▁केचि	-6119
▁नापि	-6120
▁नैते	-6121
▁पराण	-6122
▁वायो	-6123
कुर्या	-6124
क्षात्	-6125
गामिना	-6126
ग्रहाय	-6127
जन्मसं	-6128
त्वत्त	-6129
भूत्वा	-6130
मल्लोक	-6131
शोकामय	-6132
षष्ठान	-6133
ात्प्र	-6134
▁वाङ्म	-6135
▁विभूत	-6136
▁शरीरा	-6137
▁हेतुम	-6138
कृन्मत्	-6139
खशोकामय	-6140
त्किञ्च	-6141
प्राप्न	-6142
मल्लोके	-6143
रात्रिं	-6144
र्मामेव	-6145
र्विस्त	-6146
लितमानस	-6147
लुतोदके	-6148
वक्त्रं	-6149
वर्तितं	-6150
वान्मां	-6151
वाश्चैव	-6152
विकारमु	-6153
व्यमिति	-6154
व्याघ्र	-6155
शरीरस्थ	-6156
शुभाशुभ	-6157
शुष्यति	-6158
श्यन्ति	-6159
श्वत्थं	-6160
श्वानां	-6161
षयानन्य	-6162
ष्यन्ति	-6163
संस्थाप	-6164
सम्मूढा	-6165
सर्वाणि	-6166
सादयेत्	-6167
स्तप्तं	-6168
स्तमाहु	-6169
स्तीत्य	-6170
स्तैर्ह	-6171
स्थमनुप	-6172
स्थितधी	-6173
स्पतिम्	-6174
स्यन्ते	-6175
हरन्माम	-6176
हर्षशोक	-6177
ाञ्जलिर	-6178
ात्कर्म	-6179
ात्त्वं	-6180
ात्परां	-6181
ात्मानो	-6182
ात्राणि	-6183
ादित्या	-6184
ानुपसेव	-6185
ानुमन्त	-6186
ान्देवय	-6187
ान्सखीं	-6188
ान्सर्व	-6189
ापश्यत्	-6190
ाप्युत्	-6191
ामीश्वर	-6192
ामेध्यं	-6193
ामेवानु	-6194
ारूढानि	-6195
ार्थमपि	-6196
ार्थात्	-6197
ासिकस्य	-6198
ितमात्म	-6199
मेऽ	-6200
सनं	-6201
कारि	-6202
त्वे	-6203
न्नो	-6204
मादौ	-6205
र्दु	-6206
ादम्	-6207
▁फले	-6208
त्येष	-6209
त्वमा	-6210
भावपि	-6211
माचार	-6212
मेऽवश	-6213
ासक्त	-6214
ुह्यं	-6215
्येका	-6216
्रुवं	-6217
▁कलयत	-6218
▁कृते	-6219
▁त्री	-6220
▁पूति	-6221
▁राजग	-6222
ज्यश्च	-6223
ञ्जानं	-6224
तपन्ति	-6225
तरन्नो	-6226
द्वेषत	-6227
पितामह	-6228
पोऽनलो	-6229
बन्धवि	-6230
भावश्च	-6231
भ्यसनं	-6232
मेतद्य	-6233
मेयस्य	-6234
यत्येक	-6235
योगात्	-6236
र्मुहु	-6237
समग्रं	-6238
ान्तकृ	-6239
ित्येव	-6240
ुपादम्	-6241
▁तेनेद	-6242
▁नात्र	-6243
▁मार्ग	-6244
▁विभाव	-6245
किमाचार	-6246
ज्ञातुं	-6247
त्यन्ते	-6248
दृष्ट्व	-6249
नसूयश्च	-6250
निर्वैर	-6251
प्रेत्य	-6252
श्यत्सु	-6253
ष्टस्ते	-6254
समग्रंभ	-6255
ानिवाशय	-6256
ानुत्तम	-6257
ितास्तथ	-6258
ित्वैनं	-6259
िभर्त्य	-6260
िमन्तम्	-6261
िष्ठायु	-6262
ीनामप्य	-6263
ुक्तस्य	-6264
ुमनेनैव	-6265
ूनहत्वा	-6266
ून्भुङ्	-6267
ूपजायते	-6268
ेतत्त्र	-6269
ेदंरूपं	-6270
ेनावृतो	-6271
ेयात्मा	-6272
ेऽर्जुन	-6273
ैकान्ति	-6274
ैतदात्म	-6275
ोद्भवम्	-6276
ोभिर्वि	-6277
ोऽवाप्त	-6278
ोऽस्त्व	-6279
ौपम्येन	-6280
्यक्तिं	-6281
्याद्धि	-6282
्युत्सा	-6283
्येनमिह	-6284
्राणमेव	-6285
्वदिष्य	-6286
्वलद्भि	-6287
्विविधा	-6288
▁||20||	-6289
▁अकीर्त	-6290
▁अधिष्ठ	-6291
▁अनादिम	-6292
▁अविनाश	-6293
▁इज्यते	-6294
▁उदपाने	-6295
▁उभावपि	-6296
▁एकभक्त	-6297
▁एतद्वि	-6298
▁कच्चिद	-6299
इमं	-6300
इषु	-6301
कुत	-6302
ैरे	-6303
न्ने	-6304
परमं	-6305
श्रव	-6306
समान	-6307
ाद्व	-6308
▁अफल	-6309
▁इमं	-6310
इषुभि	-6311
द्रणा	-6312
द्व्य	-6313
न्तरं	-6314
न्नम्	-6315
पातेन	-6316
र्षति	-6317
शोच्य	-6318
श्रित	-6319
सर्वत	-6320
स्योप	-6321
स्वयं	-6322
ान्नं	-6323
ैरेभि	-6324
्मानं	-6325
▁अध्य	-6326
▁कन्द	-6327
▁कालो	-6328
▁क्षि	-6329
▁शाधि	-6330
▁संयम	-6331
अशोच्य	-6332
कर्तार	-6333
द्धरेद	-6334
द्रमते	-6335
पूर्वा	-6336
मश्रुप	-6337
रावर्त	-6338
र्गरीय	-6339
श्रवसम	-6340
स्थितं	-6341
▁चरतां	-6342
▁देवान	-6343
▁भवानु	-6344
▁यन्मन	-6345
▁स्थान	-6346
अज्ञानं	-6347
ण्यन्ये	-6348
त्यानां	-6349
दमन्तरं	-6350
मश्रुपू	-6351
र्णान्य	-6352
र्विजयो	-6353
ात्रापि	-6354
ितिञ्जय	-6355
ित्यज्य	-6356
िभिर्बह	-6357
ेतच्छ्र	-6358
▁कर्ताह	-6359
▁कर्तुम	-6360
▁कर्मभि	-6361
▁कर्मैव	-6362
▁कर्षति	-6363
▁कामात्	-6364
▁कारयन्	-6365
▁किञ्चन	-6366
▁कुसुमा	-6367
▁कौमारं	-6368
▁कौशलम्	-6369
▁क्रिया	-6370
▁क्षन्त	-6371
▁क्षयाय	-6372
▁गतसङ्ग	-6373
▁गतसन्द	-6374
▁गतिर्भ	-6375
▁गम्यते	-6376
▁गामावि	-6377
▁गुणसङ्	-6378
▁चकर्णं	-6379
▁चास्मि	-6380
▁जनानां	-6381
▁जानन्य	-6382
▁ज्ञानम	-6383
▁ज्ञाने	-6384
▁ततमिदं	-6385
▁तथान्य	-6386
▁तदित्य	-6387
▁तद्भाव	-6388
▁तपोभिर	-6389
▁तमुवाच	-6390
▁त्यागं	-6391
▁त्यागे	-6392
▁त्वन्त	-6393
▁त्वामह	-6394
▁धारयते	-6395
▁धृत्या	-6396
▁नश्यति	-6397
▁नाधिकं	-6398
▁नित्यज	-6399
तीव	-6400
ग्रै	-6401
तीतो	-6402
नाना	-6403
मध्य	-6404
मुखे	-6405
िनीं	-6406
िव्र	-6407
ुवना	-6408
▁एनम	-6409
गाणां	-6410
तदस्य	-6411
त्परं	-6412
पेतभी	-6413
भुवना	-6414
यमयोग	-6415
यैर्य	-6416
विशाल	-6417
ातीतो	-6418
ुग्रै	-6419
▁एनमज	-6420
▁जाति	-6421
▁पाणि	-6422
▁मामे	-6423
▁वासव	-6424
अयुक्त	-6425
असक्तो	-6426
तेज्या	-6427
ध्यस्थ	-6428
र्पणम्	-6429
शसम्भव	-6430
ष्कृति	-6431
ष्टश्छ	-6432
िव्रते	-6433
▁दुष्ट	-6434
▁मामपि	-6435
▁युध्य	-6436
▁रूपेण	-6437
▁हृष्ट	-6438
नानाविध	-6439
प्रसन्न	-6440
मध्यानि	-6441
मृगाणां	-6442
र्वाणां	-6443
विमृश्य	-6444
सीदन्ति	-6445
स्तेऽहं	-6446
स्थितिं	-6447
हृतमश्न	-6448
ावस्थित	-6449
ित्येके	-6450
िरामस्म	-6451
ैष्यत्य	-6452
ोक्त्वा	-6453
▁कर्मणा	-6454
▁चान्ति	-6455
▁नित्यव	-6456
▁निर्वा	-6457
▁परिदेव	-6458
▁परिप्र	-6459
▁पश्यतो	-6460
▁पश्येद	-6461
▁पाणिपा	-6462
▁पापेषु	-6463
▁पार्थो	-6464
▁पितासि	-6465
▁पुण्ये	-6466
▁प्रजान	-6467
▁प्रभवि	-6468
▁प्रभवो	-6469
▁प्रयत्	-6470
▁प्रविल	-6471
▁प्रसाद	-6472
▁प्रसीद	-6473
▁प्रहृष	-6474
▁प्रह्ल	-6475
▁प्रियत	-6476
▁बध्यते	-6477
▁बलादिव	-6478
▁भगवन्व	-6479
▁भिन्ना	-6480
▁भीष्मं	-6481
▁भीष्मा	-6482
▁भूतादि	-6483
▁मणिगणा	-6484
▁मतमिदं	-6485
▁मनीषिण	-6486
▁महर्षि	-6487
▁महीपते	-6488
▁मामकम्	-6489
▁माममृत	-6490
▁मामेकं	-6491
▁मिथ्या	-6492
▁मिश्रं	-6493
▁मोहिता	-6494
▁यतात्म	-6495
▁यत्तद्	-6496
▁यत्स्य	-6497
▁यथाभाग	-6498
▁यद्वत्	-6499
ादथ	-6500
ूढं	-6501
चिन्	-6502
भाक्	-6503
भाषत	-6504
ूढां	-6505
ोपमा	-6506
▁इमे	-6507
▁दूर	-6508
▁नमे	-6509
आगमाप	-6510
कारकै	-6511
त्येक	-6512
त्राद	-6513
नभश्च	-6514
नाशिन	-6515
बद्धा	-6516
सर्गौ	-6517
सुखिन	-6518
सुखेन	-6519
ात्तु	-6520
ोपस्थ	-6521
▁कृतो	-6522
▁देवं	-6523
अनाशिन	-6524
अहमेवा	-6525
प्रवीर	-6526
भ्यासा	-6527
रक्ष्य	-6528
र्गच्छ	-6529
साचिन्	-6530
स्तादथ	-6531
ियोगेन	-6532
▁क्षीण	-6533
▁तमसाव	-6534
▁यज्ञा	-6535
▁यज्ञे	-6536
▁सोपमा	-6537
▁हिमाल	-6538
क्ष्यति	-6539
क्ष्यसि	-6540
त्रादीन	-6541
न्मित्र	-6542
व्यात्त	-6543
व्यूढां	-6544
ात्तस्य	-6545
▁कर्मजं	-6546
▁कल्याण	-6547
▁देवेषु	-6548
▁पुनर्म	-6549
▁पुरुषा	-6550
▁पुरुषौ	-6551
▁भीतानि	-6552
▁महापाप	-6553
▁यातयाम	-6554
▁यावत्स	-6555
▁योगधार	-6556
▁योगस्थ	-6557
▁योगस्य	-6558
▁योगिनं	-6559
▁योऽन्त	-6560
▁रजोगुण	-6561
▁राजन्म	-6562
▁लोकत्र	-6563
▁लोकान्	-6564
▁लोकेषु	-6565
▁वायुर्	-6566
▁वायोरि	-6567
▁विष्णु	-6568
▁विसर्ग	-6569
▁व्यदार	-6570
▁व्यूढं	-6571
▁शत्रुं	-6572
▁शाश्वत	-6573
▁शूद्रा	-6574
▁शोषयति	-6575
▁श्रिता	-6576
▁श्रीमद	-6577
▁सक्तमह	-6578
▁सज्जते	-6579
▁सनातना	-6580
▁समागता	-6581
▁समाधाय	-6582
▁समाप्न	-6583
▁समाहित	-6584
▁सम्मोह	-6585
▁सर्गाण	-6586
▁सर्वगत	-6587
▁सर्वतो	-6588
▁सर्वदु	-6589
▁सर्वभृ	-6590
▁सर्वेय	-6591
▁सहस्रश	-6592
▁साधर्म	-6593
▁सामवेद	-6594
▁सुकृतं	-6595
▁सुदुर्	-6596
▁सुसुखं	-6597
▁सौम्यं	-6598
▁स्कन्द	-6599
नमो	-6600
रिण	-6601
ोधन	-6602
अमृत	-6603
उपदे	-6604
गुरु	-6605
फलैर	-6606
भिधा	-6607
महाश	-6608
ऽनुप	-6609
▁नमो	-6610
अमृतं	-6611
कामोप	-6612
छित्त	-6613
दर्शो	-6614
नाप्न	-6615
र्ध्व	-6616
सञ्जय	-6617
सहितं	-6618
▁कामै	-6619
▁गन्ध	-6620
▁चरति	-6621
▁परमो	-6622
▁भूति	-6623
▁योधा	-6624
▁विमो	-6625
▁सशरं	-6626
▁साधि	-6627
▁सुखी	-6628
▁सुखे	-6629
तस्त्र	-6630
दध्मतु	-6631
देवस्य	-6632
न्देहं	-6633
प्यकृत	-6634
महाशनो	-6635
मेवेति	-6636
र्गन्ध	-6637
र्वदेह	-6638
स्त्रं	-6639
स्त्रै	-6640
▁जगदाह	-6641
▁तामेव	-6642
▁यौवनं	-6643
▁सुखम्	-6644
कामार्थ	-6645
क्षणमपि	-6646
नुशुश्र	-6647
फलैरेवं	-6648
र्वदेहि	-6649
वियुक्त	-6650
ाशस्त्र	-6651
ुर्योधन	-6652
▁अयुक्त	-6653
▁चोक्तं	-6654
▁छेत्ता	-6655
▁देवदेव	-6656
▁शिखरिण	-6657
▁सुखस्य	-6658
▁सुखेषु	-6659
▁स्तब्ध	-6660
▁स्थिता	-6661
▁स्थितो	-6662
▁स्मृता	-6663
▁स्यान्	-6664
▁हरन्ति	-6665
▁हिव्या	-6666
▁ह्यवरं	-6667
अतोऽस्मि	-6668
अव्यक्ता	-6669
आत्मवश्य	-6670
कर्मिभ्य	-6671
कामक्रोध	-6672
कामोपभोग	-6673
कारार्थं	-6674
केऽनियतं	-6675
क्षत्राण	-6676
क्षयकृत्	-6677
क्षिणाम्	-6678
क्षुद्रं	-6679
क्ष्यस्य	-6680
क्ष्वाकव	-6681
खमज्ञानं	-6682
खमाप्तुम	-6683
गुण्यविष	-6684
गुरुप्रा	-6685
ग्निरिवा	-6686
च्छन्नपि	-6687
च्छ्रद्ध	-6688
ज्ञपूजनं	-6689
तेनान्तर	-6690
तोऽज्ञान	-6691
त्प्रजान	-6692
त्वमव्यय	-6693
त्वैतानि	-6694
त्स्यामि	-6695
दरवक्त्र	-6696
दाक्ष्यं	-6697
दित्यगतं	-6698
दुत्थिता	-6699
भीत	-6700
मपा	-6701
वपु	-6702
वसू	-6703
शलं	-6704
ालं	-6705
िलं	-6706
ूदन	-6707
मनसो	-6708
विमौ	-6709
समदु	-6710
ानला	-6711
ृङ्म	-6712
▁तनु	-6713
▁यतय	-6714
कलिलं	-6715
ञ्चति	-6716
द्विष	-6717
नवानि	-6718
न्दने	-6719
बाहुं	-6720
मेवनि	-6721
ास्तु	-6722
िष्ये	-6723
▁कच्च	-6724
▁गुणा	-6725
▁तच्च	-6726
▁यततो	-6727
अनित्य	-6728
निषूदन	-6729
यस्तथा	-6730
वसूनां	-6731
समाधाव	-6732
्यक्तय	-6733
▁गुणां	-6734
▁प्रीत	-6735
▁भूतेश	-6736
▁मध्ये	-6737
▁सोमपा	-6738
ङ्गानीव	-6739
न्यचेता	-6740
मीदृङ्म	-6741
राणामपि	-6742
वपुर्मह	-6743
वसपत्नम	-6744
व्ययस्य	-6745
सकरावुभ	-6746
स्त्वपि	-6747
स्त्वया	-6748
ालंक्षी	-6749
िनिषूदन	-6750
्यकुशलं	-6751
्यासक्त	-6752
्यासस्य	-6753
्येवाधि	-6754
▁कृष्णो	-6755
▁गुणेषु	-6756
▁द्यूतं	-6757
▁पुण्यं	-6758
▁भीतभीत	-6759
▁मृतस्य	-6760
▁यतन्ति	-6761
▁यस्त्व	-6762
▁सदसच्च	-6763
▁स्मरति	-6764
द्द्रष्ट	-6765
द्भवन्ति	-6766
द्भासयते	-6767
द्भिर्वि	-6768
द्योनीनि	-6769
द्रष्टुं	-6770
द्विद्धि	-6771
द्विभूति	-6772
धर्माणां	-6773
धिस्थस्य	-6774
ध्यक्षेण	-6775
ध्यानात्	-6776
नन्ताश्च	-6777
नन्यमनसो	-6778
निन्दन्त	-6779
निश्चितं	-6780
नुरज्यते	-6781
नुस्मरन्	-6782
न्तराराम	-6783
न्त्यनाम	-6784
न्द्रमसि	-6785
पदमासुरी	-6786
पूर्वाणि	-6787
प्रजहाति	-6788
प्रजापति	-6789
प्रसक्ता	-6790
प्रेप्सु	-6791
बलारोग्य	-6792
बुद्ध्या	-6793
ब्रह्मैव	-6794
भिसन्धाय	-6795
भीष्मश्च	-6796
भूतात्मा	-6797
मकर्तारं	-6798
मत्यन्तं	-6799
एकं	-6800
भूव	-6801
वानक	-6802
शुनि	-6803
▁चमू	-6804
कारणं	-6805
गम्यं	-6806
ग्रेण	-6807
चारेण	-6808
चिर्म	-6809
तान्य	-6810
तेनैव	-6811
दर्शन	-6812
दाह्य	-6813
द्रथं	-6814
धान्य	-6815
मूलमध	-6816
विशत्	-6817
विशां	-6818
▁बभूव	-6819
अकर्मण	-6820
ग्रहेण	-6821
धान्यत	-6822
नात्मन	-6823
न्तरम्	-6824
पतन्ति	-6825
माणमचल	-6826
योगिनो	-6827
विषादी	-6828
ान्येव	-6829
िभिर्न	-6830
्यामृत	-6831
▁अन्ना	-6832
▁इतीयं	-6833
▁चमूम्	-6834
▁प्रवे	-6835
▁फलेषु	-6836
▁यत्सा	-6837
▁विशते	-6838
▁सम्भव	-6839
▁ह्यसं	-6840
▁ह्यहं	-6841
जानन्ति	-6842
तान्यहं	-6843
द्दीप्त	-6844
न्त्येव	-6845
पलायनम्	-6846
लोकमश्न	-6847
विशारदा	-6848
ाहमिष्ट	-6849
िभिर्नर	-6850
िव्योरि	-6851
ुरात्मन	-6852
ेदकर्मण	-6853
▁पणवानक	-6854
▁पूतपाप	-6855
▁भोगान्	-6856
▁युक्तच	-6857
▁येऽप्य	-6858
▁सङ्करो	-6859
▁ह्यस्य	-6860
चिर्मरुत	-6861
त्यात्मन	-6862
धनान्येव	-6863
पश्यन्ति	-6864
मुक्त्वा	-6865
मुलोऽभ्य	-6866
मूढांस्त	-6867
यक्षासुर	-6868
यज्ञस्तप	-6869
यज्ञाश्च	-6870
युक्तस्व	-6871
येत्सर्व	-6872
योगेश्वर	-6873
रंशुमान्	-6874
रमीदृङ्म	-6875
रसामस्मि	-6876
र्चितुमि	-6877
र्थकामां	-6878
र्ध्रुवं	-6879
र्निर्वि	-6880
र्मनीषिण	-6881
वर्त्मनि	-6882
वस्थितमी	-6883
वाप्तमवा	-6884
विद्भजति	-6885
विनाशिनं	-6886
विवर्धना	-6887
विषामस्त	-6888
विष्यध्व	-6889
विष्याणि	-6890
वेत्तासि	-6891
शीर्षोऽह	-6892
श्चाधिको	-6893
श्चोष्मप	-6894
ष्णासङ्ग	-6895
संस्पर्श	-6896
सङ्कल्पो	-6897
सञ्छिन्न	-6898
सात्मकोऽ	-6899
यतत	-6900
दिशो	-6901
नाशो	-6902
ब्धो	-6903
यतते	-6904
ल्पम	-6905
हसमन	-6906
ीनमद	-6907
्नवी	-6908
▁कवी	-6909
▁नरै	-6910
▁यशो	-6911
ंशाद्	-6912
ण्डोद	-6913
तोऽसि	-6914
दग्रे	-6915
द्दृढ	-6916
वानपि	-6917
विधम्	-6918
श्रौष	-6919
ाबाहो	-6920
िन्नो	-6921
ुषितं	-6922
▁74||	-6923
▁चोपप	-6924
▁नरोऽ	-6925
आत्मैव	-6926
एतद्यो	-6927
ज्ञाता	-6928
द्राभि	-6929
प्यत्र	-6930
मास्ति	-6931
लुब्धो	-6932
शीलस्य	-6933
सिंहना	-6934
ाम्येन	-6935
▁तप्तं	-6936
▁प्रयत	-6937
▁फलानि	-6938
▁यजन्त	-6939
▁येऽपि	-6940
▁विहित	-6941
द्दृढम्	-6942
महाबाहो	-6943
मृतूनां	-6944
यततामपि	-6945
योगारूढ	-6946
विज्ञात	-6947
विप्रति	-6948
शान्तिं	-6949
सत्त्वं	-6950
स्वल्पम	-6951
िन्नोभय	-6952
ुर्योगं	-6953
ोऽन्यत्	-6954
्रहीनमद	-6955
▁कवीनाम	-6956
▁जानाति	-6957
▁ततोऽसि	-6958
▁तपाम्य	-6959
▁तस्यैव	-6960
▁यन्मां	-6961
▁रूपाणि	-6962
▁वेद्यं	-6963
जयोऽस्मि	-6964
द्धनञ्जय	-6965
द्राजसमु	-6966
भ्रंशाद्	-6967
र्लुब्धो	-6968
ल्लोकान्	-6969
वस्थितम्	-6970
समुच्यते	-6971
सम्पन्ने	-6972
सादनार्थ	-6973
सिंहनादं	-6974
सूत्रपदै	-6975
स्तथापरे	-6976
स्तस्माद	-6977
स्तांस्त	-6978
स्त्यागं	-6979
स्त्यागा	-6980
स्त्रियो	-6981
स्थितान्	-6982
स्पर्शजा	-6983
स्योक्ता	-6984
हत्वाऽपि	-6985
हमव्ययम्	-6986
हसमन्वित	-6987
हृषीकेशं	-6988
हृष्यामि	-6989
ांश्चरति	-6990
ांस्तथैव	-6991
ात्त्विक	-6992
ानश्विनौ	-6993
ानिदृष्ट	-6994
ानुबन्धे	-6995
ान्तामुप	-6996
ान्पार्थ	-6997
ान्पौत्र	-6998
ान्युक्त	-6999
मीश	-7000
ीषि	-7001
एतत्	-7002
काशं	-7003
तदहं	-7004
पिते	-7005
भावा	-7006
भासं	-7007
शीर्	-7008
ुवत्	-7009
ेकेह	-7010
▁नैत	-7011
एतस्य	-7012
करोति	-7013
खेष्व	-7014
पितेव	-7015
मसक्त	-7016
मायया	-7017
मीशमी	-7018
रेणान	-7019
सक्तं	-7020
ैतानि	-7021
ोऽमृत	-7022
▁बहुव	-7023
▁मद्ग	-7024
▁माया	-7025
▁व्यप	-7026
प्रतिम	-7027
बहून्य	-7028
समुत्थ	-7029
हारस्य	-7030
ांस्तव	-7031
▁असक्त	-7032
▁आस्ते	-7033
▁तद्भव	-7034
▁तन्नि	-7035
▁तमभ्य	-7036
▁मनीषि	-7037
▁मोहनं	-7038
▁यस्ये	-7039
▁विनङ्	-7040
मद्भावा	-7041
स्माच्च	-7042
हङ्कारं	-7043
▁अधर्मा	-7044
▁एतन्मे	-7045
▁त्वयैक	-7046
▁दिव्यं	-7047
▁दिव्यौ	-7048
▁पश्यैत	-7049
▁मद्भाव	-7050
▁यज्ञभा	-7051
▁यथाकाश	-7052
एतस्याहं	-7053
गुणाभासं	-7054
निराशीर्	-7055
पत्राक्ष	-7056
मीशमीड्य	-7057
याविष्टो	-7058
रेणानलेन	-7059
श्रद्धाम	-7060
समुत्थेन	-7061
सात्त्वि	-7062
ान्समवेत	-7063
ावच्छृणु	-7064
ावस्थितो	-7065
ाविरहितं	-7066
ाशयस्थित	-7067
िमापन्नं	-7068
ीन्द्रिय	-7069
ुक्तचेतस	-7070
ुमिच्छसि	-7071
ुरगांश्च	-7072
ुरव्ययम्	-7073
ुरुच्यते	-7074
ृतज्ञाना	-7075
ेणात्मनो	-7076
ेष्वभिधा	-7077
ैकाग्रेण	-7078
ोऽन्यत्र	-7079
्यागीत्य	-7080
्यास्थित	-7081
्युच्छ्र	-7082
्युच्यते	-7083
्योतिरेव	-7084
▁अज्ञश्च	-7085
▁अधिभूतं	-7086
▁अविनाशि	-7087
▁अश्वत्थ	-7088
▁अस्माकं	-7089
▁आख्याहि	-7090
▁आब्रह्म	-7091
▁उत्सन्न	-7092
▁उदासीनो	-7093
▁कामकामा	-7094
▁कामकारत	-7095
▁कामधुक्	-7096
▁कामरूपं	-7097
▁कामान्य	-7098
▁कीर्तिं	-7099
जीव	-7100
अपरं	-7101
इदान	-7102
गृही	-7103
नादी	-7104
रजसं	-7105
सुहृ	-7106
िर्ध	-7107
अयथाव	-7108
तत्ते	-7109
दानमी	-7110
नमस्य	-7111
पराणि	-7112
सोऽवि	-7113
ान्नै	-7114
ास्ते	-7115
ुर्भू	-7116
▁लाभं	-7117
इदानीम	-7118
जालसमा	-7119
तेऽत्र	-7120
वेदेषु	-7121
सुहृदं	-7122
स्पृशं	-7123
ापवान्	-7124
िर्धीर	-7125
्यबन्ध	-7126
▁तन्मे	-7127
▁धर्मम	-7128
▁नमस्य	-7129
▁नानाव	-7130
▁निगृह	-7131
▁भावना	-7132
▁मायया	-7133
▁रुधिर	-7134
▁सन्नि	-7135
कारस्ते	-7136
ग्रान्व	-7137
मुपसङ्ग	-7138
यष्टव्य	-7139
ृत्स्थं	-7140
▁जित्वा	-7141
▁नित्यश	-7142
▁हित्वा	-7143
कसंविग्न	-7144
जीवभूतां	-7145
दुष्कृते	-7146
धिदैवतम्	-7147
धिपत्यम्	-7148
ब्रह्मणो	-7149
वादिनाम्	-7150
संन्यासं	-7151
सङ्करस्य	-7152
सञ्जयान्	-7153
समायुक्त	-7154
सोऽविकम्	-7155
हेतुर्भू	-7156
ामृतभुजो	-7157
ैतदशेषेण	-7158
्येत्प्र	-7159
▁एतेऽत्र	-7160
▁कर्तेति	-7161
▁कूटस्थो	-7162
▁कूर्मोऽ	-7163
▁क्रियते	-7164
▁क्वचित्	-7165
▁गतिर्दु	-7166
▁गन्तासि	-7167
▁गायत्री	-7168
▁गुणसङ्ग	-7169
▁गुणेभ्य	-7170
▁चतुर्भु	-7171
▁चराचरम्	-7172
▁चात्मनि	-7173
▁चाभावयत	-7174
▁चैवात्र	-7175
▁जगद्भास	-7176
▁जन्मानि	-7177
▁जयद्रथं	-7178
▁जीवलोके	-7179
▁ज्ञानप्	-7180
▁ज्ञानमा	-7181
▁तपन्तम्	-7182
▁तमश्चैव	-7183
▁तस्मात्	-7184
▁तात्मैव	-7185
▁तान्समी	-7186
▁त्रायते	-7187
▁त्रिधैव	-7188
▁त्वत्सम	-7189
▁त्वमस्य	-7190
▁त्विमां	-7191
▁दुष्कृत	-7192
▁दृढमिति	-7193
▁देवरूपं	-7194
▁देवानां	-7195
▁देवान्य	-7196
▁देहभृता	-7197
▁द्रव्यय	-7198
▁धनुर्धर	-7199
अनार	-7200
अनेन	-7201
दोषं	-7202
पाके	-7203
▁रिप	-7204
▁हरि	-7205
त्साम	-7206
दाहृत	-7207
प्रणव	-7208
भ्राम	-7209
रूपेण	-7210
सोऽपि	-7211
स्वाध	-7212
▁करणं	-7213
▁चानघ	-7214
▁पूजा	-7215
▁लाभा	-7216
ग्ररूप	-7217
तत्प्र	-7218
दृष्टो	-7219
मोहितं	-7220
ास्यति	-7221
ेष्टते	-7222
▁निबन्	-7223
▁पापेन	-7224
▁यतत्स	-7225
▁विषया	-7226
▁विषये	-7227
अनात्मन	-7228
यस्मिन्	-7229
रिच्यते	-7230
वस्थितौ	-7231
ात्क्षर	-7232
ान्मयैव	-7233
ेष्टस्य	-7234
ोत्तमम्	-7235
▁अदृष्ट	-7236
▁कर्मजा	-7237
▁गतव्यथ	-7238
▁देहवद्	-7239
▁धृतिर्	-7240
▁निबद्ध	-7241
▁पूर्वा	-7242
▁पूर्वे	-7243
▁प्रलये	-7244
▁बहुमतो	-7245
▁मुख्यं	-7246
▁समोऽहं	-7247
अनार्यजु	-7248
कामरूपेण	-7249
धिकोयोगी	-7250
निर्दोषं	-7251
भक्तोऽसि	-7252
भूतभृन्न	-7253
भ्रामयन्	-7254
मध्यात्म	-7255
यत्तेऽहं	-7256
वर्तयतीह	-7257
वाणिज्यं	-7258
्युदाहृत	-7259
▁चेष्टते	-7260
▁धार्यते	-7261
▁नमेरन्म	-7262
▁नरकायैव	-7263
▁नात्मान	-7264
▁नादत्ते	-7265
▁नानाभाव	-7266
▁नारीणां	-7267
▁नित्यमव	-7268
▁नियतस्य	-7269
▁नियोजित	-7270
▁निर्गुण	-7271
▁निर्मलं	-7272
▁निश्चयं	-7273
▁निश्चला	-7274
▁नेच्छसि	-7275
▁परधर्मो	-7276
▁परमवाप्	-7277
▁परम्परा	-7278
▁पश्यन्न	-7279
▁पापेभ्य	-7280
▁पार्थाय	-7281
▁पुरुषोऽ	-7282
▁प्रणम्य	-7283
▁प्रमाणं	-7284
▁प्रमाथि	-7285
▁प्रसादम	-7286
▁प्राकृत	-7287
▁प्रेत्य	-7288
▁बहुविधा	-7289
▁बोधयन्त	-7290
▁भवतीत्य	-7291
▁भवेद्यु	-7292
▁भूतभावन	-7293
▁भूतानाम	-7294
▁भूतान्य	-7295
▁भूतिध्र	-7296
▁भैक्ष्य	-7297
▁भोक्तुं	-7298
▁मत्परमा	-7299
ीहि	-7300
घवम्	-7301
देशे	-7302
रोमा	-7303
लैरि	-7304
▁घात	-7305
▁जहि	-7306
▁भीम	-7307
▁लभे	-7308
क्लेश	-7309
क्षेम	-7310
दानीं	-7311
रजङ्ग	-7312
र्पणं	-7313
श्नेन	-7314
ष्णीं	-7315
ामपरि	-7316
ालस्य	-7317
ृजामि	-7318
▁अदेश	-7319
▁कुलं	-7320
▁तथाप	-7321
▁दीपो	-7322
▁सखेव	-7323
▁हतां	-7324
धीर्मु	-7325
नाशनम्	-7326
मत्प्र	-7327
योगेना	-7328
ेश्वरो	-7329
्यायतो	-7330
▁कार्प	-7331
▁क्षरो	-7332
▁चापरं	-7333
▁मदमेव	-7334
▁मानसा	-7335
▁मृतम्	-7336
▁विधान	-7337
क्लेशभय	-7338
गणांश्च	-7339
धर्ममपि	-7340
बुद्धिम	-7341
विधीयते	-7342
सङ्गदोष	-7343
ुमर्हति	-7344
्यमागता	-7345
▁कुलस्य	-7346
▁घातयति	-7347
▁तस्यां	-7348
▁त्रिषु	-7349
▁परिक्ल	-7350
▁पुण्या	-7351
▁भावसमन	-7352
▁लाघवम्	-7353
▁विचेतस	-7354
▁विषादं	-7355
▁विहिता	-7356
▁वेदाहं	-7357
धीर्मुनि	-7358
रजङ्गमम्	-7359
स्वतेजसा	-7360
ेष्वसक्त	-7361
▁कुलधर्म	-7362
▁केवलैरि	-7363
▁तथात्मा	-7364
▁तूष्णीं	-7365
▁ध्यायतो	-7366
▁भूयोऽपि	-7367
▁ममात्मा	-7368
▁महात्मा	-7369
▁महेश्वर	-7370
▁मानुषीं	-7371
▁मामेभ्य	-7372
▁मृत्युं	-7373
▁मोहिनीं	-7374
▁यज्ञेषु	-7375
▁यत्रोपर	-7376
▁यथोक्तं	-7377
▁यदक्षरं	-7378
▁यस्त्वि	-7379
▁यस्मान्	-7380
▁योगमाति	-7381
▁रूपमिदं	-7382
▁लोकोऽयं	-7383
▁वचस्तेन	-7384
▁विकर्मण	-7385
▁विधीयते	-7386
▁विमत्सर	-7387
▁विमुह्य	-7388
▁विशिष्ट	-7389
▁विश्वेऽ	-7390
▁विषयानि	-7391
▁वेदवित्	-7392
▁वेदविदो	-7393
▁वेदानां	-7394
▁वेदाश्च	-7395
▁शक्नोषि	-7396
▁शरीराणि	-7397
▁शशाङ्को	-7398
▁शाखागुण	-7399
मयी	-7400
हरणा	-7401
ुमिह	-7402
अन्ये	-7403
आत्मव	-7404
यानेव	-7405
वादिं	-7406
ूनिति	-7407
▁दैवं	-7408
▁भजते	-7409
▁वचनम	-7410
▁शुभा	-7411
कर्तुं	-7412
क्शरीर	-7413
क्षणम्	-7414
जन्मसु	-7415
तत्परं	-7416
दश्चैव	-7417
नान्तं	-7418
नुद्या	-7419
न्येवा	-7420
परिहार	-7421
स्थाने	-7422
▁तामसं	-7423
▁तेऽभि	-7424
▁दैवीं	-7425
▁धीमता	-7426
▁भजस्व	-7427
▁लभेत्	-7428
▁संयमी	-7429
▁संवाद	-7430
▁सूयते	-7431
न्तवन्त	-7432
प्रहरणा	-7433
मजानन्त	-7434
र्तुमिह	-7435
ान्तज्र	-7436
▁गुणमयी	-7437
▁परित्र	-7438
▁पूर्वै	-7439
▁प्रमाथ	-7440
▁फलहेतव	-7441
▁भजन्ति	-7442
▁समत्वं	-7443
▁समासेन	-7444
▁हृद्या	-7445
कुरूनिति	-7446
क्शरीरवि	-7447
ष्कर्म्य	-7448
समासेनैव	-7449
िताश्चैव	-7450
▁कर्तुमि	-7451
▁तत्रैवा	-7452
▁तपश्चैव	-7453
▁परयोपेत	-7454
▁प्रमादे	-7455
▁प्रसादे	-7456
▁भूतस्थो	-7457
▁रथोपस्थ	-7458
▁वर्तेयं	-7459
▁शान्तिं	-7460
▁शाश्वता	-7461
▁शिष्येण	-7462
▁श्रुत्व	-7463
▁संवृत्त	-7464
▁संशुद्ध	-7465
▁सञ्जयति	-7466
▁सदोषमपि	-7467
▁सर्वकाम	-7468
▁सर्वगतं	-7469
▁सर्वतोऽ	-7470
▁सर्वलोक	-7471
▁सर्वान्	-7472
▁सर्वैरह	-7473
▁साधूनां	-7474
▁सिद्धाव	-7475
▁सुकृतिन	-7476
▁सुखमक्ष	-7477
▁सुखमश्न	-7478
▁सुनिश्च	-7479
▁सौक्ष्म	-7480
▁स्थितम्	-7481
▁स्थिरम्	-7482
▁स्यात्त	-7483
▁स्यामुप	-7484
▁हन्तारं	-7485
▁हस्तिनि	-7486
▁हृदयानि	-7487
▁हृद्देश	-7488
▁हृष्यति	-7489
▁ह्येषां	-7490
अव्यक्तनि	-7491
अहङ्कारवि	-7492
आगमापायिन	-7493
आत्मवन्तं	-7494
कर्मबन्धं	-7495
कालोऽस्मि	-7496
कुतस्त्वा	-7497
क्रामन्तं	-7498
क्रियाश्च	-7499
आचर	-7500
लमध	-7501
दारा	-7502
माहो	-7503
विनय	-7504
▁पथि	-7505
▁सखा	-7506
चर्यं	-7507
नमन्य	-7508
षाणां	-7509
ोऽनसू	-7510
्यमती	-7511
▁चलमध	-7512
▁चलम्	-7513
▁यज्ज	-7514
▁शोकं	-7515
▁सज्ज	-7516
▁स्नि	-7517
इज्यते	-7518
गुण्यो	-7519
त्यागो	-7520
मनुप्र	-7521
यदिच्छ	-7522
सन्निव	-7523
ेच्छसि	-7524
▁उदारा	-7525
▁तेनैव	-7526
▁तेष्व	-7527
▁नाशित	-7528
▁भविता	-7529
▁सख्यु	-7530
क्षाणां	-7531
च्छ्रुत	-7532
तत्सुखं	-7533
दर्शिभि	-7534
द्योगीभ	-7535
ध्योऽयं	-7536
व्ययमनु	-7537
श्यन्तं	-7538
सिष्यसि	-7539
ुष्यमेव	-7540
▁चातितर	-7541
▁चोत्तम	-7542
▁दमस्तप	-7543
▁द्वारं	-7544
▁पुण्यो	-7545
▁मनुष्य	-7546
▁यजन्तो	-7547
▁यतन्तो	-7548
▁युद्धा	-7549
▁सर्वेस	-7550
▁स्थितौ	-7551
▁ह्येषा	-7552
कीर्त्या	-7553
चिकीर्षव	-7554
त्यागस्य	-7555
राणामकार	-7556
्योऽस्ति	-7557
▁कर्तारं	-7558
▁कर्मफले	-7559
▁तत्सुखं	-7560
▁पृथिवीं	-7561
▁मोहोऽयं	-7562
▁म्रियते	-7563
▁रजस्तथा	-7564
▁विषयप्र	-7565
क्ष्यन्ति	-7566
गुणवृत्ति	-7567
गृहीत्वास	-7568
च्चैनमन्य	-7569
त्तानप्रद	-7570
त्त्वमिमं	-7571
त्यहरागमे	-7572
त्वमक्षरं	-7573
दर्शयामास	-7574
दव्यक्तमू	-7575
दित्यान्व	-7576
द्दधानश्च	-7577
द्वारमपाव	-7578
द्वेगैर्म	-7579
ध्ययनैर्न	-7580
नाशोऽस्ति	-7581
न्त्यमूढा	-7582
न्त्यात्म	-7583
न्त्युग्र	-7584
न्द्रियम्	-7585
न्द्रोऽहं	-7586
परमात्माय	-7587
परीतांश्च	-7588
प्रकृतिमो	-7589
प्रज्ञस्य	-7590
प्रतिष्ठो	-7591
प्रसादजम्	-7592
प्रोच्यते	-7593
बुद्धयस्त	-7594
ब्रह्माति	-7595
भ्यात्मान	-7596
भ्याहमिदं	-7597
मवसादयेत्	-7598
मवाप्नोति	-7599
ण्ण	-7600
▁खं	-7601
एकमप	-7602
नभिस	-7603
▁वशं	-7604
असदित	-7605
थोल्ब	-7606
धसाम्	-7607
ादीनि	-7608
▁अथवा	-7609
▁कट्व	-7610
▁नेमे	-7611
▁रागी	-7612
▁हेतु	-7613
जित्वा	-7614
पस्यसि	-7615
प्येनं	-7616
भावमेक	-7617
यथोल्ब	-7618
वर्जित	-7619
सङ्घाव	-7620
स्यापि	-7621
▁चेतना	-7622
▁तेऽपि	-7623
▁दोषवद	-7624
▁दोषैर	-7625
▁नयेत्	-7626
▁पर्जन	-7627
▁शक्यं	-7628
▁सक्ता	-7629
▁सन्तो	-7630
निग्रहं	-7631
प्रणम्य	-7632
र्वाक्च	-7633
वर्जिता	-7634
सङ्घान्	-7635
िष्टमपि	-7636
▁तद्विद	-7637
▁तेऽद्य	-7638
▁तेऽव्य	-7639
▁पृथक्च	-7640
▁मामेवम	-7641
▁मुनिर्	-7642
▁योगसेव	-7643
▁विदुर्	-7644
▁सङ्गरह	-7645
▁सत्कार	-7646
इष्टोऽसि	-7647
गच्छेत्त	-7648
ण्णचेतसा	-7649
ात्यजेत्	-7650
▁कट्वम्ल	-7651
▁किञ्चित	-7652
▁किमासीत	-7653
▁कुर्यां	-7654
▁कुर्वन्	-7655
▁तमस्त्व	-7656
▁निर्मान	-7657
▁निर्योग	-7658
▁युञ्जतो	-7659
▁युञ्जीत	-7660
▁सहयज्ञा	-7661
▁स्वयमेव	-7662
▁स्वस्या	-7663
गच्छेत्तौ	-7664
दविज्ञेयं	-7665
नभिसन्धाय	-7666
मस्कृत्वा	-7667
मामुपेत्य	-7668
माश्रितम्	-7669
मुत्तिष्ठ	-7670
मुद्भवश्च	-7671
मोहयत्येष	-7672
यन्त्येते	-7673
यमाग्निषु	-7674
यिष्यन्ति	-7675
युक्तोऽयं	-7676
योगयुक्तो	-7677
रश्चाक्षर	-7678
रात्रविदो	-7679
रावृत्तिं	-7680
र्वर्ण्यं	-7681
र्विन्दते	-7682
लेद्योऽशो	-7683
वार्जुनयो	-7684
विद्वांसो	-7685
व्ययात्मा	-7686
शाश्वतस्य	-7687
श्चाभिभूय	-7688
श्यास्तथा	-7689
ष्कर्म्यं	-7690
ष्टमिष्टं	-7691
ष्टस्तस्य	-7692
संयोगात्त	-7693
संशुद्धिर	-7694
समर्थोऽसि	-7695
समाविष्टो	-7696
समुद्रमाप	-7697
सर्वानेवं	-7698
साधुष्वपि	-7699
वशे	-7700
मदनु	-7701
बाहूर	-7702
सांसि	-7703
हुताश	-7704
ामयम्	-7705
ोधसां	-7706
▁ख्ये	-7707
▁तमसो	-7708
▁परस्	-7709
▁सृती	-7710
गतागतं	-7711
णात्यु	-7712
दनैर्ज	-7713
द्यतति	-7714
द्यतयो	-7715
नाद्यत	-7716
ान्पुम	-7717
्यभिरत	-7718
▁एवैते	-7719
▁भजतां	-7720
▁शङ्खं	-7721
▁सक्तो	-7722
कामधुक्	-7723
द्योगाय	-7724
परिणामे	-7725
विसृज्य	-7726
सर्वगतं	-7727
▁कृपश्च	-7728
▁तद्योग	-7729
▁तान्नि	-7730
▁नराणां	-7731
▁नाभावो	-7732
▁मद्योग	-7733
▁महत्ते	-7734
▁विविधा	-7735
▁स्वजनं	-7736
▁स्वयम्	-7737
कमनामयम्	-7738
लवणात्यु	-7739
ष्ठिकीम्	-7740
ात्सनातन	-7741
ान्वितम्	-7742
ोऽनित्या	-7743
▁जगत्पते	-7744
▁देहिनां	-7745
▁पुराणस्	-7746
▁फलाकाङ्	-7747
▁यद्यतयो	-7748
▁वासांसि	-7749
▁स्वर्गं	-7750
गच्छन्त्य	-7751
त्यक्त्वा	-7752
सीमासुरीं	-7753
सुखप्रीति	-7754
सुखसङ्गेन	-7755
स्तथासक्त	-7756
स्तस्यारा	-7757
स्त्रिविध	-7758
स्यवशोऽपि	-7759
स्यसंशयम्	-7760
स्वाध्याय	-7761
हीनमसृष्ट	-7762
हेतुनानेन	-7763
ऽन्यदेवता	-7764
ात्मात्मन	-7765
ात्माधृति	-7766
ात्म्यमपि	-7767
ानभिस्नेह	-7768
ानुत्तमां	-7769
ानुपश्यति	-7770
ान्देवयजो	-7771
ान्द्रव्य	-7772
ान्भ्रातृ	-7773
ान्विद्धि	-7774
ान्श्रेयो	-7775
ाहङ्कारेण	-7776
ितिक्षस्व	-7777
ित्वान्नि	-7778
िनोऽर्जुन	-7779
िरनन्तरम्	-7780
ुहृदश्चैव	-7781
ेतत्त्रयं	-7782
ेन्द्रियै	-7783
ेर्युद्धे	-7784
ेशोऽधिकतर	-7785
ेऽब्रवीत्	-7786
ैतद्विद्म	-7787
ैर्मुक्तं	-7788
ोऽध्यात्म	-7789
्मयाच्युत	-7790
्यादिकर्त	-7791
▁अकीर्तिं	-7792
▁अन्तकाले	-7793
▁अहमात्मा	-7794
▁आत्मवान्	-7795
▁आदित्यान	-7796
▁इत्युक्त	-7797
▁इन्द्रिय	-7798
▁एतान्यपि	-7799
हरते	-7800
अधश्च	-7801
उपैति	-7802
ैब्यं	-7803
▁कायं	-7804
▁पुरे	-7805
▁रजसो	-7806
▁वासो	-7807
अक्षरं	-7808
खसंयोग	-7809
नारम्भ	-7810
पूर्वं	-7811
ान्वित	-7812
िमान्य	-7813
▁कायेन	-7814
▁दम्भो	-7815
▁पुष्प	-7816
▁महीम्	-7817
▁सचेता	-7818
कर्माणो	-7819
कौन्तेय	-7820
त्प्रहृ	-7821
द्भवकरो	-7822
प्रमादो	-7823
रसवर्जं	-7824
स्तेऽपि	-7825
्यवन्ति	-7826
▁किमन्य	-7827
▁ध्रुवो	-7828
▁नानुशो	-7829
▁पुष्पं	-7830
▁प्रभवं	-7831
▁शरीरिण	-7832
▁संहरते	-7833
न्नसम्भव	-7834
शान्तस्य	-7835
सम्भवान्	-7836
सहस्रस्य	-7837
▁कारणानि	-7838
▁पुराणोन	-7839
▁प्रतियो	-7840
▁यच्चापि	-7841
▁विनियतं	-7842
जगत्प्रहृ	-7843
त्यात्मनि	-7844
भिजातोऽसि	-7845
भिजानन्ति	-7846
ल्लोकान्न	-7847
स्तुवन्ति	-7848
ीनामप्यहं	-7849
ोधाद्भवति	-7850
▁अव्यक्तं	-7851
▁करिष्यति	-7852
▁कर्तव्यं	-7853
▁कर्माण्य	-7854
▁कामकारेण	-7855
▁कार्पण्य	-7856
▁कुर्वन्न	-7857
▁कुलक्षये	-7858
▁कृत्वापि	-7859
▁कृत्स्नम	-7860
▁क्लैब्यं	-7861
▁क्षेत्री	-7862
▁गात्राणि	-7863
▁गुरुणापि	-7864
▁गृह्णाति	-7865
▁घ्राणमेव	-7866
▁चक्रहस्त	-7867
▁चाकीर्ति	-7868
▁चान्तिके	-7869
▁चाप्यहम्	-7870
▁चामेध्यं	-7871
▁चाव्ययम्	-7872
▁चैवास्मि	-7873
▁चोपपन्नं	-7874
▁जितात्मन	-7875
▁जितात्मा	-7876
▁जीर्णानि	-7877
▁ज्ञानस्य	-7878
▁ज्ञानासि	-7879
▁ज्ञानिनो	-7880
▁तच्छक्यं	-7881
▁तत्त्वतो	-7882
▁तत्त्ववि	-7883
▁तत्सदिति	-7884
▁तथात्मान	-7885
▁तदज्ञानं	-7886
▁तदस्माकं	-7887
▁तद्भवत्य	-7888
▁तपस्तत्त	-7889
▁तमसावृता	-7890
▁तमोद्वार	-7891
▁तस्मान्म	-7892
▁तिष्ठत्य	-7893
▁तूद्देशत	-7894
▁त्यक्तजी	-7895
▁त्यक्तुं	-7896
▁त्रिविधा	-7897
▁त्रिविधो	-7898
▁त्वत्प्र	-7899
यद्ग	-7900
▁भुङ	-7901
अभितो	-7902
छिन्न	-7903
ुरिमे	-7904
▁इहैव	-7905
▁गर्भ	-7906
▁चातु	-7907
▁भुङ्	-7908
▁भुवि	-7909
▁वदसि	-7910
▁सोमो	-7911
▁स्रो	-7912
▁हतम्	-7913
अवाप्य	-7914
क्षुभि	-7915
र्भेदं	-7916
विक्रम	-7917
▁ख्येन	-7918
▁छिन्न	-7919
▁नष्टे	-7920
▁बहुधा	-7921
▁बहुला	-7922
▁मायाम	-7923
▁सदृशी	-7924
▁स्तेन	-7925
मैश्वरं	-7926
वासुदेव	-7927
ष्णीनां	-7928
ारभ्यते	-7929
ित्याभि	-7930
▁नान्यं	-7931
▁परिणाम	-7932
▁	-7933
्	-7934
ा	-7935
त	-7936
|	-7937
र	-7938
य	-7939
म	-7940
ि	-7941
न	-7942
व	-7943
स	-7944
े	-7945
प	-7946
क	-7947
ं	-7948
ु	-7949
द	-7950
ो	-7951
:	-7952
च	-7953
श	-7954
ह	-7955
ष	-7956
ज	-7957
भ	-7958
ध	-7959
ग	-7960
ण	-7961
ी	-7962
ृ	-7963
थ	-7964
ल	-7965
1	-7966
ै	-7967
ू	-7968
ञ	-7969
ब	-7970
2	-7971
ऽ	-7972
अ	-7973
3	-7974
4	-7975
ख	-7976
ट	-7977
ौ	-7978
ङ	-7979
5	-7980
6	-7981
ए	-7982
7	-7983
छ	-7984
उ	-7985
8	-7986
9	-7987
इ	-7988
0	-7989
आ	-7990
ठ	-7991
घ	-7992
ढ	-7993
फ	-7994
ड	-7995
।	-7996
