<unk>	0
<s>	0
</s>	0
ha	-0
ya	-1
ta	-2
ra	-3
va	-4
ma	-5
na	-6
sa	-7
hā	-8
▁p	-9
śh	-10
▁a	-11
ti	-12
cha	-13
ṣh	-14
yā	-15
▁k	-16
▁sa	-17
hi	-18
vā	-19
te	-20
vi	-21
ṛi	-22
▁b	-23
mā	-24
tā	-25
ar	-26
▁d	-27
ni	-28
▁cha	-29
▁ta	-30
nā	-31
yo	-32
pa	-33
ga	-34
rā	-35
▁ma	-36
ch	-37
▁s	-38
ja	-39
śha	-40
▁ya	-41
▁vi	-42
▁na	-43
da	-44
jñ	-45
▁’	-46
ṣha	-47
▁t	-48
▁pra	-49
dd	-50
▁u	-51
▁e	-52
ṇa	-53
ṣhṭ	-54
tha	-55
ri	-56
bh	-57
bha	-58
ye	-59
ve	-60
yu	-61
▁ā	-62
la	-63
▁m	-64
▁i	-65
jñā	-66
▁sar	-67
▁kar	-68
yaṁ	-69
taḥ	-70
sya	-71
ur	-72
yate	-73
ka	-74
kā	-75
▁pa	-76
to	-77
mi	-78
▁yo	-79
▁ni	-80
▁bha	-81
nti	-82
▁śh	-83
naṁ	-84
tra	-85
chā	-86
dh	-87
thā	-88
ṛit	-89
▁mā	-90
ṇā	-91
▁bh	-92
haṁ	-93
taṁ	-94
dā	-95
sā	-96
yam	-97
ṣhu	-98
▁sarva	-99
pi	-100
si	-101
vān	-102
uk	-103
ham	-104
he	-105
tma	-106
▁karma	-107
▁eva	-108
bhi	-109
nd	-110
iva	-111
jā	-112
pra	-113
▁chā	-114
ro	-115
vya	-116
nta	-117
yaḥ	-118
tva	-119
una	-120
chi	-121
▁ka	-122
▁te	-123
ddhi	-124
▁kā	-125
▁śha	-126
raṁ	-127
lo	-128
rī	-129
tvā	-130
▁pā	-131
tu	-132
▁g	-133
▁ja	-134
▁va	-135
▁jñā	-136
no	-137
kṣh	-138
nte	-139
nu	-140
pā	-141
re	-142
nam	-143
tam	-144
▁me	-145
vācha	-146
dha	-147
naḥ	-148
ram	-149
thi	-150
tya	-151
ṇi	-152
bhā	-153
śhā	-154
kar	-155
tāḥ	-156
▁uvācha	-157
ho	-158
▁de	-159
▁bhū	-160
bhū	-161
rah	-162
śhcha	-163
di	-164
ne	-165
ṣhā	-166
▁nā	-167
kṣha	-168
śhya	-169
dhā	-170
uru	-171
tmā	-172
rtha	-173
rj	-174
▁yu	-175
rahma	-176
kṛi	-177
san	-178
par	-179
smi	-180
uḥ	-181
nāṁ	-182
▁tu	-183
▁san	-184
dhi	-185
hṛi	-186
▁vā	-187
chch	-188
śhva	-189
▁brahma	-190
ndri	-191
▁tat	-192
ir	-193
ru	-194
nya	-195
rta	-196
▁hi	-197
▁bhā	-198
▁par	-199
rjuna	-200
ena	-201
maṁ	-202
▁ga	-203
▁sā	-204
▁yā	-205
▁prā	-206
uddhi	-207
mo	-208
▁ch	-209
de	-210
ty	-211
tir	-212
tāni	-213
▁māṁ	-214
▁yog	-215
▁tva	-216
sam	-217
▁rā	-218
ddha	-219
daṁ	-220
han	-221
ke	-222
tta	-223
yas	-224
▁j	-225
raḥ	-226
▁lo	-227
▁tathā	-228
tī	-229
jña	-230
▁da	-231
▁gu	-232
vṛit	-233
▁api	-234
▁sam	-235
lā	-236
kta	-237
rata	-238
▁mahā	-239
▁ba	-240
▁ye	-241
▁sama	-242
▁pārtha	-243
me	-244
rū	-245
vī	-246
saṅ	-247
▁ve	-248
ṣhṭa	-249
▁yoga	-250
nir	-251
▁ki	-252
▁tad	-253
▁para	-254
eta	-255
sar	-256
smā	-257
tiṁ	-258
tān	-259
▁pu	-260
▁śhrī	-261
▁chaiva	-262
ba	-263
uḥk	-264
sthi	-265
gā	-266
▁h	-267
dam	-268
haḥ	-269
laṁ	-270
▁suk	-271
chyate	-272
yāmi	-273
▁śhā	-274
▁avya	-275
le	-276
har	-277
ñja	-278
▁sat	-279
▁sva	-280
karma	-281
▁buddhi	-282
hī	-283
maḥ	-284
saḥ	-285
tyā	-286
śhi	-287
śho	-288
▁mo	-289
▁ra	-290
ṣhya	-291
gavān	-292
▁ahaṁ	-293
▁ha	-294
tvam	-295
▁iti	-296
▁kṛi	-297
▁mām	-298
▁ātma	-299
vo	-300
pya	-301
śhu	-302
▁yad	-303
▁yat	-304
bhava	-305
tiṣhṭ	-306
▁aham	-307
▁puru	-308
chchha	-309
ndriyā	-310
▁arjuna	-311
iḥ	-312
ktā	-313
tiḥ	-314
trā	-315
vyā	-316
thaṁ	-317
▁ana	-318
▁kau	-319
▁bhava	-320
do	-321
ūr	-322
▁jā	-323
▁vid	-324
▁puna	-325
nī	-326
su	-327
yi	-328
nma	-329
vṛi	-330
yan	-331
ṇam	-332
ṇaṁ	-333
nteya	-334
sī	-335
ṇḍ	-336
yān	-337
▁tvā	-338
varta	-339
▁sthi	-340
▁kaunteya	-341
gra	-342
kto	-343
mam	-344
tum	-345
vaṁ	-346
▁di	-347
dhyā	-348
▁dhā	-349
▁kṛit	-350
▁pari	-351
▁paśhya	-352
▁bhārata	-353
▁uchyate	-354
mṛi	-355
vam	-356
ṅga	-357
ṇaḥ	-358
ṇāṁ	-359
dhar	-360
rūpa	-361
▁tya	-362
▁prakṛi	-363
bā	-364
hu	-365
nyā	-366
nām	-367
tim	-368
dana	-369
yoga	-370
▁mad	-371
▁mayā	-372
ūḍ	-373
ṇe	-374
kaṁ	-375
saṁ	-376
suk	-377
vaḥ	-378
tvaṁ	-379
tāma	-380
ṣhṭā	-381
▁yaḥ	-382
▁jaga	-383
▁janā	-384
rt	-385
ddh	-386
▁ku	-387
bhir	-388
ktvā	-389
śhaḥ	-390
arśha	-391
▁tapa	-392
▁jñāna	-393
▁sarve	-394
▁yajña	-395
īr	-396
dṛi	-397
▁dā	-398
chit	-399
kṣhi	-400
māṇi	-401
▁bho	-402
▁dra	-403
▁hṛi	-404
▁ity	-405
▁vya	-406
hankā	-407
ñjaya	-408
▁rāja	-409
▁yata	-410
▁yogī	-411
vasthi	-412
▁puruṣha	-413
muk	-414
pha	-415
rya	-416
tad	-417
tām	-418
yām	-419
ṣhe	-420
▁la	-421
▁si	-422
duḥk	-423
▁dṛi	-424
bhāva	-425
jñāna	-426
▁chai	-427
▁kuru	-428
▁mama	-429
▁tvāṁ	-430
▁kṛiṣh	-431
▁yathā	-432
▁viddhi	-433
dī	-434
sū	-435
ṇo	-436
iśh	-437
kam	-438
sva	-439
tāṁ	-440
śhe	-441
ṇām	-442
▁ke	-443
ddhā	-444
parā	-445
śhri	-446
ṣhṭo	-447
▁evā	-448
▁pri	-449
▁pro	-450
▁pṛi	-451
▁asmi	-452
▁bhak	-453
▁dhṛi	-454
▁guṇa	-455
▁idaṁ	-456
se	-457
uh	-458
ṇī	-459
dya	-460
hin	-461
nye	-462
tti	-463
tvi	-464
yog	-465
yor	-466
kṣhe	-467
māna	-468
pāsa	-469
traṁ	-470
ñcha	-471
śhra	-472
ṣhāṁ	-473
▁dha	-474
▁mat	-475
▁pha	-476
cheta	-477
sarva	-478
▁deva	-479
▁duḥk	-480
▁evaṁ	-481
▁samā	-482
▁tvaṁ	-483
ndriya	-484
▁yānti	-485
▁pṛitha	-486
chchhati	-487
ji	-488
ko	-489
ṇu	-490
jñe	-491
mas	-492
mān	-493
māṁ	-494
prā	-495
sti	-496
tat	-497
tuṁ	-498
vid	-499
ṣhi	-500
ṣhī	-501
▁dh	-502
▁su	-503
bhak	-504
ddhe	-505
saṅg	-506
▁anu	-507
śhchi	-508
▁kāma	-509
▁kṣha	-510
▁madh	-511
▁rūpa	-512
darśha	-513
tmānaṁ	-514
▁janma	-515
▁tasmā	-516
▁śharī	-517
tiṣhṭha	-518
▁jñānaṁ	-519
▁tattva	-520
bhagavān	-521
▁bhavati	-522
▁bhagavān	-523
jo	-524
po	-525
py	-526
bho	-527
grā	-528
lpa	-529
syā	-530
▁bu	-531
▁pi	-532
bāho	-533
rama	-534
rṣha	-535
smin	-536
ttvi	-537
tyaṁ	-538
▁kiṁ	-539
▁taṁ	-540
▁tri	-541
bhūta	-542
▁dhar	-543
▁saha	-544
▁tato	-545
▁tāma	-546
▁utta	-547
▁yadā	-548
▁śhṛi	-549
jñānaṁ	-550
paśhya	-551
▁dhana	-552
▁param	-553
▁paraṁ	-554
▁tasya	-555
vartate	-556
▁tyaktvā	-557
gu	-558
pu	-559
▁ī	-560
jas	-561
lam	-562
nto	-563
sṛi	-564
upa	-565
yād	-566
▁ar	-567
▁no	-568
bhiḥ	-569
bhya	-570
ktaṁ	-571
rthe	-572
sthā	-573
ucha	-574
▁bhī	-575
▁che	-576
▁nir	-577
▁upa	-578
bhijā	-579
yamya	-580
▁lokā	-581
▁parā	-582
▁yogi	-583
▁śhre	-584
buddhi	-585
chchhā	-586
śhyāmi	-587
▁manaḥ	-588
▁punaḥ	-589
▁jñānam	-590
▁sāttvi	-591
▁bharata	-592
kh	-593
st	-594
bhu	-595
kri	-596
mūḍ	-597
nas	-598
nda	-599
pṛi	-600
rān	-601
ṣho	-602
kṛit	-603
yena	-604
▁ava	-605
▁muk	-606
▁tyā	-607
▁tān	-608
bhūtā	-609
tasya	-610
ṛityu	-611
▁dehe	-612
▁pāṇḍ	-613
duḥkha	-614
śhanti	-615
▁kṛits	-616
▁sarvā	-617
▁viṣha	-618
dhyātma	-619
rṣhabha	-620
▁avyayam	-621
▁bhūtāni	-622
▁karmāṇi	-623
▁pravṛit	-624
▁śhāśhva	-625
gī	-626
ku	-627
li	-628
dve	-629
mya	-630
pad	-631
ran	-632
sta	-633
van	-634
var	-635
vāp	-636
samā	-637
stra	-638
thaḥ	-639
śhaṁ	-640
▁sad	-641
▁vai	-642
teṣhu	-643
vidhā	-644
yante	-645
▁kṣhe	-646
▁mana	-647
▁mayi	-648
pāsate	-649
▁pāṇḍa	-650
▁varta	-651
indriyā	-652
▁kṛitvā	-653
▁prāpya	-654
▁buddhir	-655
▁pṛithak	-656
▁sañjaya	-657
▁paśhyati	-658
▁bharatarṣhabha	-659
mī	-660
pe	-661
jya	-662
pan	-663
paṁ	-664
yāḥ	-665
ṇya	-666
ṇāḥ	-667
▁he	-668
▁ār	-669
chin	-670
ktaḥ	-671
ntir	-672
pare	-673
samu	-674
vyaṁ	-675
▁han	-676
▁jyo	-677
▁jñe	-678
▁kāṅ	-679
▁man	-680
▁nai	-681
hinsā	-682
phala	-683
syasi	-684
tatra	-685
yātma	-686
▁arha	-687
▁imaṁ	-688
▁maha	-689
▁mano	-690
▁niya	-691
▁sthā	-692
▁śhra	-693
▁kartā	-694
▁nitya	-695
▁pramā	-696
▁chāsmi	-697
▁jñātvā	-698
▁viśhva	-699
▁śhṛiṇu	-700
▁kṛiṣhṇa	-701
▁paramaṁ	-702
▁śhaucha	-703
gachchhati	-704
bu	-705
ki	-706
wa	-707
ṭa	-708
arā	-709
dho	-710
gṛi	-711
kro	-712
kīr	-713
nan	-714
ras	-715
sma	-716
stu	-717
sur	-718
sām	-719
tre	-720
vad	-721
yoḥ	-722
śhī	-723
ṇān	-724
▁ji	-725
▁mu	-726
deva	-727
gnir	-728
ktam	-729
loka	-730
nena	-731
pari	-732
tena	-733
vyam	-734
yāya	-735
ṣhaṁ	-736
ṣhṭu	-737
▁aśh	-738
▁dur	-739
▁kur	-740
▁kār	-741
▁udā	-742
▁ādi	-743
jñānā	-744
kṣhya	-745
ntapa	-746
rtarā	-747
samud	-748
sthaṁ	-749
tasmā	-750
tātmā	-751
vanti	-752
vitāḥ	-753
yajñā	-754
yuktā	-755
īyate	-756
ṣhṭhā	-757
ṣhṭvā	-758
▁avāp	-759
▁prāp	-760
▁sata	-761
▁tama	-762
▁veda	-763
▁ārja	-764
▁śhak	-765
grahaḥ	-766
yogena	-767
▁akṣha	-768
▁bhaja	-769
▁bhūta	-770
▁bhūtā	-771
▁gatim	-772
▁janāḥ	-773
▁punar	-774
▁nityaṁ	-775
rtarāṣhṭ	-776
▁uvāchaa	-777
▁parantapa	-778
▁sarvaśhaḥ	-779
mu	-780
tr	-781
ṅk	-782
daḥ	-783
dro	-784
gāḥ	-785
has	-786
jam	-787
jaṁ	-788
man	-789
pri	-790
rāg	-791
rāḥ	-792
sau	-793
tri	-794
tve	-795
uṣh	-796
vra	-797
▁as	-798
▁ut	-799
▁ṛi	-800
band	-801
bhaḥ	-802
bhyā	-803
chid	-804
chār	-805
jyaṁ	-806
māni	-807
māsā	-808
nama	-809
neka	-810
noti	-811
nāti	-812
sena	-813
vati	-814
vido	-815
▁asa	-816
▁hya	-817
▁kim	-818
▁kro	-819
chāri	-820
ddhiṁ	-821
janma	-822
paraṁ	-823
prayā	-824
rdana	-825
saṅga	-826
ttama	-827
tātma	-828
yajña	-829
▁anta	-830
▁kāle	-831
▁kṣhā	-832
▁loka	-833
▁loke	-834
▁moha	-835
▁nara	-836
▁purā	-837
▁smṛi	-838
▁tadā	-839
▁yena	-840
▁divyā	-841
▁keśha	-842
▁lokān	-843
▁naiva	-844
▁parāṁ	-845
▁prava	-846
▁saṅga	-847
▁tatra	-848
▁vetti	-849
▁vivṛi	-850
▁yukta	-851
buddhir	-852
hankāra	-853
kṣhyāmi	-854
▁jāyate	-855
▁sarvam	-856
▁sukhaṁ	-857
▁vairāg	-858
bhūtānāṁ	-859
chetasaḥ	-860
paśhyāmi	-861
▁ichchhā	-862
▁puruṣho	-863
▁sattvaṁ	-864
▁vidyate	-865
▁janārdana	-866
dhigachchhati	-867
gh	-868
is	-869
jī	-870
my	-871
nn	-872
dra	-873
dvā	-874
gha	-875
hāḥ	-876
kaḥ	-877
laḥ	-878
nau	-879
ndh	-880
pūr	-881
tur	-882
tyu	-883
war	-884
yāt	-885
▁an	-886
▁ne	-887
▁pū	-888
▁so	-889
▁tv	-890
▁vī	-891
badh	-892
dhaḥ	-893
graṁ	-894
hāra	-895
kāle	-896
kāra	-897
kṣhu	-898
kṣhā	-899
ntam	-900
nāta	-901
rthā	-902
stho	-903
tapa	-904
tham	-905
vivi	-906
yase	-907
yata	-908
ṣhaṇ	-909
ṣhva	-910
ṣhye	-911
ṣhām	-912
▁chi	-913
▁dai	-914
▁dve	-915
▁guh	-916
▁hye	-917
▁sak	-918
▁saḥ	-919
▁saṅ	-920
▁tan	-921
▁yaj	-922
▁śho	-923
bhate	-924
jyate	-925
kāśha	-926
nanya	-927
niṣhu	-928
prasā	-929
reṣhu	-930
sukha	-931
▁apra	-932
▁atha	-933
▁bahu	-934
▁chaa	-935
▁dṛiḍ	-936
▁idam	-937
▁jana	-938
▁sadā	-939
▁tapo	-940
▁tvam	-941
▁yāti	-942
▁ṣhaṇ	-943
ddhayā	-944
dharmā	-945
jāyate	-946
nāvṛit	-947
parāya	-948
pāśhri	-949
thaiva	-950
uhvati	-951
śheṣha	-952
ṣhyasi	-953
ṣhyati	-954
▁buddh	-955
▁naraḥ	-956
▁prala	-957
▁yatra	-958
▁yogaṁ	-959
▁yukto	-960
▁āśhri	-961
padyate	-962
rtheṣhu	-963
vivikta	-964
▁bhūtvā	-965
▁jyotir	-966
▁priyaḥ	-967
▁sanśha	-968
▁tasmād	-969
▁ārjava	-970
vartante	-971
▁dhṛitiḥ	-972
▁keśhava	-973
▁proktam	-974
▁pāṇḍava	-975
▁sarvāṇi	-976
nāvṛittim	-977
▁prakṛiti	-978
▁sarvatra	-979
▁dhanañjaya	-980
▁bharatarṣhabhaa	-981
ge	-982
go	-983
hū	-984
so	-985
yy	-986
che	-987
dān	-988
huḥ	-989
iti	-990
jan	-991
kal	-992
mau	-993
mām	-994
nty	-995
rji	-996
tāt	-997
usū	-998
vak	-999
yat	-1000
ṣhv	-1001
▁do	-1002
▁mi	-1003
dham	-1004
dyaṁ	-1005
mano	-1006
para	-1007
ptaṁ	-1008
rati	-1009
rupa	-1010
surī	-1011
tram	-1012
vand	-1013
yamā	-1014
yati	-1015
śham	-1016
ṣhaḥ	-1017
▁cho	-1018
▁dhī	-1019
▁iha	-1020
▁iva	-1021
▁kiñ	-1022
▁mūḍ	-1023
▁pūr	-1024
▁sau	-1025
▁vyā	-1026
▁śhū	-1027
hitāḥ	-1028
karmā	-1029
nātma	-1030
pyate	-1031
raṇaṁ	-1032
sarvā	-1033
tathā	-1034
upade	-1035
yanam	-1036
yudhā	-1037
yukta	-1038
śhiṣh	-1039
ṛithi	-1040
ṣhīke	-1041
ṣhṭhi	-1042
▁abhi	-1043
▁acha	-1044
▁asmā	-1045
▁asya	-1046
▁karo	-1047
▁kula	-1048
▁manu	-1049
▁tava	-1050
bhavaḥ	-1051
chitta	-1052
dveṣha	-1053
harṣha	-1054
hṛitam	-1055
myaham	-1056
rathaḥ	-1057
sannyā	-1058
▁balaṁ	-1059
▁bhavi	-1060
▁daivī	-1061
▁dhāra	-1062
▁dānaṁ	-1063
▁guṇān	-1064
▁jagat	-1065
▁paryu	-1066
▁prati	-1067
▁praṇa	-1068
▁rūpam	-1069
▁rūpaṁ	-1070
▁tyāga	-1071
▁vacha	-1072
▁vibhū	-1073
▁vipar	-1074
▁yogam	-1075
▁āvṛit	-1076
bhūtāni	-1077
chchhan	-1078
karmāṇi	-1079
yāśhcha	-1080
▁ajñāna	-1081
▁ananta	-1082
▁arhasi	-1083
▁bhūyaḥ	-1084
▁kathaṁ	-1085
▁mṛityu	-1086
▁nibadh	-1087
▁phalaṁ	-1088
▁sannyā	-1089
▁sarvān	-1090
adhyātma	-1091
bhavanti	-1092
ndriyāṇi	-1093
viśhanti	-1094
▁ajñānaṁ	-1095
▁draṣhṭu	-1096
▁juhvati	-1097
▁madhusū	-1098
▁satataṁ	-1099
▁ātmanaḥ	-1100
▁śharīra	-1101
▁gachchha	-1102
▁hṛiṣhīke	-1103
▁prakāśha	-1104
▁pratiṣhṭ	-1105
▁puruṣhaṁ	-1106
▁sarvasya	-1107
▁sarveṣhu	-1108
▁svabhāva	-1109
▁śhauchaṁ	-1110
darśhanama	-1111
▁prakṛitiṁ	-1112
▁dhārtarāṣhṭ	-1113
lu	-1114
ṇy	-1115
▁o	-1116
bhe	-1117
dhū	-1118
drā	-1119
eka	-1120
jaḥ	-1121
kāṅ	-1122
lya	-1123
lān	-1124
lāḥ	-1125
mad	-1126
mat	-1127
nkh	-1128
nāḥ	-1129
pat	-1130
rāh	-1131
sak	-1132
sas	-1133
tas	-1134
vat	-1135
vām	-1136
yuḥ	-1137
ṇḍī	-1138
▁ko	-1139
▁ru	-1140
▁āp	-1141
bhaṁ	-1142
dbhu	-1143
ddho	-1144
dāra	-1145
gata	-1146
hena	-1147
hāni	-1148
hāya	-1149
ivaṁ	-1150
jarā	-1151
jāna	-1152
lena	-1153
mayi	-1154
mayā	-1155
myaṁ	-1156
ntaṁ	-1157
odha	-1158
puru	-1159
ravī	-1160
reṇa	-1161
rāga	-1162
rāśh	-1163
rāṭa	-1164
tair	-1165
vala	-1166
vini	-1167
yogā	-1168
śhre	-1169
ṣham	-1170
ṣhvā	-1171
ṣhṇe	-1172
ṣhṭi	-1173
▁anā	-1174
▁dar	-1175
▁gho	-1176
▁gṛi	-1177
▁kri	-1178
▁lab	-1179
▁tam	-1180
▁tra	-1181
▁vak	-1182
▁var	-1183
▁vāk	-1184
▁yan	-1185
▁yaṁ	-1186
▁āsu	-1187
▁āsī	-1188
▁śhi	-1189
bhyas	-1190
bhāve	-1191
bhāvo	-1192
deśha	-1193
doṣhā	-1194
eśhva	-1195
hitaṁ	-1196
jante	-1197
kalma	-1198
kalpa	-1199
mātmā	-1200
paraḥ	-1201
prāṇā	-1202
rahmā	-1203
ratir	-1204
rtham	-1205
sarve	-1206
taraṁ	-1207
trāṇi	-1208
tyāgī	-1209
varji	-1210
vegāḥ	-1211
ṣheṇa	-1212
▁aśha	-1213
▁deha	-1214
▁dehi	-1215
▁etad	-1216
▁nānu	-1217
▁pavi	-1218
▁spṛi	-1219
▁tavā	-1220
▁vini	-1221
▁yach	-1222
▁śhru	-1223
bhayor	-1224
buddha	-1225
graham	-1226
kathaṁ	-1227
mṛityu	-1228
prakṛi	-1229
ryavān	-1230
sanśha	-1231
siddha	-1232
sukhaṁ	-1233
śhyati	-1234
▁aneka	-1235
▁bhāva	-1236
▁dhṛit	-1237
▁etāni	-1238
▁hatvā	-1239
▁iṣhṭā	-1240
▁nirma	-1241
▁prajā	-1242
▁prayā	-1243
▁putra	-1244
▁sadṛi	-1245
▁tataḥ	-1246
▁visṛi	-1247
▁vyava	-1248
▁yudhi	-1249
▁śhaṅk	-1250
dhīyate	-1251
jaśhcha	-1252
lipyate	-1253
mānasaḥ	-1254
pravṛit	-1255
▁abhijā	-1256
▁ahinsā	-1257
▁anabhi	-1258
▁dharma	-1259
▁jñeyaṁ	-1260
▁kṣhamā	-1261
▁madhye	-1262
▁manasā	-1263
▁pitāma	-1264
▁prajñā	-1265
▁pṛithi	-1266
▁sannya	-1267
▁sanāta	-1268
▁sattva	-1269
▁sukham	-1270
▁tasmāt	-1271
▁viparī	-1272
▁virāṭa	-1273
▁śhreyo	-1274
▁śhānti	-1275
bhichāri	-1276
▁bhaktyā	-1277
▁buddhyā	-1278
▁chāparā	-1279
▁jāyante	-1280
▁karmaṇi	-1281
▁kaśhchi	-1282
▁kāṅkṣha	-1283
▁tiṣhṭha	-1284
▁upāsate	-1285
▁yoginaḥ	-1286
▁ātmānaṁ	-1287
śhiṣhyate	-1288
▁bhūteṣhu	-1289
▁draupade	-1290
▁kṣhāntir	-1291
▁tathaiva	-1292
▁viśhanti	-1293
▁viṣhayān	-1294
▁vīryavān	-1295
vinigrahaḥ	-1296
▁ichchhāmi	-1297
▁udāhṛitam	-1298
▁vakṣhyāmi	-1299
▁vivṛiddhe	-1300
▁gachchhanti	-1301
▁madhusūdana	-1302
▁paryupāsate	-1303
▁virāṭaśhcha	-1304
▁draupadeyāśhcha	-1305
je	-1306
kī	-1307
lb	-1308
īp	-1309
▁v	-1310
ana	-1311
anu	-1312
asa	-1313
bhī	-1314
dvi	-1315
eva	-1316
hur	-1317
hāt	-1318
ivā	-1319
krā	-1320
māḥ	-1321
ndā	-1322
nyo	-1323
pam	-1324
pre	-1325
rūḍ	-1326
sye	-1327
ter	-1328
tro	-1329
tṛi	-1330
yed	-1331
yet	-1332
yur	-1333
ṇyā	-1334
▁bī	-1335
▁jī	-1336
▁oṁ	-1337
bhyo	-1338
bhṛi	-1339
chya	-1340
chyu	-1341
ddhy	-1342
etaj	-1343
hitā	-1344
hādi	-1345
jate	-1346
karā	-1347
kula	-1348
kāma	-1349
mana	-1350
maśh	-1351
nāpa	-1352
papa	-1353
pate	-1354
pita	-1355
ruvo	-1356
sadi	-1357
sand	-1358
sevi	-1359
spṛi	-1360
stāt	-1361
taḥa	-1362
tvai	-1363
tvān	-1364
tvāt	-1365
vikā	-1366
yach	-1367
yāsa	-1368
ātma	-1369
ṅgaḥ	-1370
ṇāni	-1371
▁apy	-1372
▁asi	-1373
▁ato	-1374
▁bhu	-1375
▁chh	-1376
▁dam	-1377
▁gar	-1378
▁muh	-1379
▁prī	-1380
▁sma	-1381
▁taj	-1382
▁uta	-1383
▁āve	-1384
bhavā	-1385
bhaya	-1386
bhyaḥ	-1387
chara	-1388
ddhaṁ	-1389
ddhim	-1390
gataṁ	-1391
heṣhu	-1392
iryam	-1393
janam	-1394
janaṁ	-1395
jayaṁ	-1396
lpate	-1397
nanti	-1398
nitya	-1399
nyayā	-1400
prakā	-1401
rāhma	-1402
tasyā	-1403
tvena	-1404
tyāga	-1405
vedaṁ	-1406
warga	-1407
yasva	-1408
yataḥ	-1409
yogaṁ	-1410
yukto	-1411
śhvat	-1412
śhāya	-1413
ṛitya	-1414
ṣhuni	-1415
ṣhṭaḥ	-1416
▁adam	-1417
▁adhi	-1418
▁astī	-1419
▁bala	-1420
▁chet	-1421
▁devā	-1422
▁duṣh	-1423
▁evai	-1424
▁loko	-1425
▁mahī	-1426
▁māna	-1427
▁narā	-1428
▁rāga	-1429
▁samu	-1430
▁sans	-1431
▁stha	-1432
▁tena	-1433
▁tvām	-1434
▁vada	-1435
▁vedā	-1436
▁yayā	-1437
▁yogo	-1438
bhūtaṁ	-1439
chitum	-1440
chyuta	-1441
chāryo	-1442
dbhava	-1443
ddhaye	-1444
dyante	-1445
grāmaṁ	-1446
krodha	-1447
kṣhaya	-1448
ndrama	-1449
niṣhṭo	-1450
nyathā	-1451
saktir	-1452
sammūḍ	-1453
tavyaṁ	-1454
tmānam	-1455
ttiṣhu	-1456
vidhaṁ	-1457
vratāḥ	-1458
vyādhi	-1459
śhubhā	-1460
▁achin	-1461
▁amāni	-1462
▁bhoga	-1463
▁bhīṣh	-1464
▁bhūte	-1465
▁chata	-1466
▁cheta	-1467
▁dhāma	-1468
▁dhātā	-1469
▁kāmān	-1470
▁putrā	-1471
▁puṇya	-1472
▁pāpaṁ	-1473
▁rajas	-1474
▁sakhe	-1475
▁sampa	-1476
▁samṛi	-1477
▁sānkh	-1478
▁tapas	-1479
▁teṣhu	-1480
▁viduḥ	-1481
▁vinda	-1482
▁vista	-1483
▁yasya	-1484
▁īśhva	-1485
bhitvam	-1486
doṣhānu	-1487
gṛihādi	-1488
kāṅkṣhi	-1489
kṣhetra	-1490
kṣhyase	-1491
nametaj	-1492
nandana	-1493
niśhcha	-1494
prayāṇa	-1495
prāṇāpā	-1496
pāsanaṁ	-1497
sansadi	-1498
ṣhyanti	-1499
▁aratir	-1500
▁chaivā	-1501
▁darśha	-1502
▁divyam	-1503
▁duḥkha	-1504
▁guṇaiḥ	-1505
▁kartum	-1506
▁kurvan	-1507
▁mokṣha	-1508
▁pañcha	-1509
▁phalam	-1510
▁rājyaṁ	-1511
▁satyaṁ	-1512
▁swarga	-1513
▁teṣhāṁ	-1514
▁vigata	-1515
▁śhakno	-1516
bhūteṣhu	-1517
māchāryo	-1518
nāpamāna	-1519
sevitvam	-1520
śhcharya	-1521
śheṣheṇa	-1522
ṣhvaṅgaḥ	-1523
▁bhaktir	-1524
▁buddhiḥ	-1525
▁dhṛityā	-1526
▁duḥkhaṁ	-1527
▁dveṣhṭi	-1528
▁dṛiṣhṭa	-1529
▁jagataḥ	-1530
▁kalpate	-1531
▁niyamya	-1532
▁pṛithag	-1533
▁siddhiṁ	-1534
▁tāmasam	-1535
▁ubhayor	-1536
▁uttamam	-1537
▁uvāchae	-1538
▁uvāchai	-1539
▁śharīre	-1540
▁śhāntim	-1541
jñānārtha	-1542
nityatvaṁ	-1543
parāyaṇāḥ	-1544
prakṛitiṁ	-1545
śheṣhataḥ	-1546
ṇīvivikta	-1547
ṣhunityaṁ	-1548
▁chajanma	-1549
▁chānanya	-1550
▁kṛitsnam	-1551
▁puruṣhaḥ	-1552
▁vartanta	-1553
▁śhraddhā	-1554
chittatvam	-1555
niṣhṭopapa	-1556
ttiṣhumayi	-1557
▁amānitvam	-1558
▁kāṅkṣhati	-1559
▁nivartate	-1560
▁sthairyam	-1561
▁tattvataḥ	-1562
▁vairāgyam	-1563
▁anahankāra	-1564
▁adambhitvam	-1565
▁viśhiṣhyate	-1566
darśhanametaj	-1567
▁avyabhichāri	-1568
indriyārtheṣhu	-1569
māchāryopāsanaṁ	-1570
sansadiadhyātma	-1571
▁anabhiṣhvaṅgaḥ	-1572
▁dhārtarāṣhṭrān	-1573
darśhanamasaktir	-1574
gṛihādiṣhunityaṁ	-1575
▁iṣhṭāniṣhṭopapa	-1576
ib	-1577
mū	-1578
ḍā	-1579
asi	-1580
bdā	-1581
dar	-1582
dau	-1583
dur	-1584
dyo	-1585
dyu	-1586
dāt	-1587
dīn	-1588
gān	-1589
hya	-1590
hyo	-1591
hān	-1592
ikā	-1593
jet	-1594
jño	-1595
kau	-1596
kha	-1597
kiṁ	-1598
kya	-1599
kān	-1600
lbi	-1601
lup	-1602
mit	-1603
nsi	-1604
nād	-1605
rtā	-1606
ste	-1607
sāṁ	-1608
tau	-1609
vit	-1610
yad	-1611
yos	-1612
yuk	-1613
yut	-1614
yāṁ	-1615
ūṭa	-1616
ṇas	-1617
ṇḍi	-1618
▁bā	-1619
▁hu	-1620
▁ro	-1621
▁sū	-1622
adhi	-1623
bhra	-1624
dayā	-1625
dhaṁ	-1626
dhya	-1627
dhṛi	-1628
dāna	-1629
dāsī	-1630
game	-1631
gand	-1632
gatā	-1633
guṇa	-1634
guṇā	-1635
jana	-1636
kara	-1637
khyā	-1638
kāya	-1639
loke	-1640
lāni	-1641
mikā	-1642
nair	-1643
nike	-1644
ntar	-1645
nute	-1646
nyat	-1647
nāni	-1648
nṣhṭ	-1649
puṣh	-1650
raja	-1651
reṇā	-1652
rāya	-1653
sitā	-1654
sīda	-1655
tama	-1656
taśh	-1657
thāḥ	-1658
tiśh	-1659
toṣh	-1660
tris	-1661
tyam	-1662
tāsi	-1663
tīva	-1664
ukla	-1665
unam	-1666
vimo	-1667
vāsa	-1668
yair	-1669
yasī	-1670
yāma	-1671
śhma	-1672
ūrdh	-1673
ḍāke	-1674
ṣhyā	-1675
ṣhāḥ	-1676
▁apa	-1677
▁apā	-1678
▁atī	-1679
▁avi	-1680
▁dro	-1681
▁dīp	-1682
▁eta	-1683
▁eve	-1684
▁ime	-1685
▁mār	-1686
▁puṇ	-1687
▁rāj	-1688
▁swa	-1689
▁sṛi	-1690
▁tul	-1691
▁āha	-1692
▁āsa	-1693
▁śhu	-1694
bodha	-1695
bravī	-1696
dadhā	-1697
dasya	-1698
dhūmo	-1699
ekayā	-1700
gatiṁ	-1701
gṛihī	-1702
hinaḥ	-1703
hoṣha	-1704
hyate	-1705
iśhwa	-1706
jitaḥ	-1707
kīrti	-1708
kṛite	-1709
kṣhye	-1710
mayaṁ	-1711
miṣha	-1712
mohaḥ	-1713
neṣhu	-1714
nindā	-1715
nirvā	-1716
nyena	-1717
pannā	-1718
rthaṁ	-1719
sanni	-1720
sanśh	-1721
stham	-1722
syāmi	-1723
tapaḥ	-1724
tmanā	-1725
tulya	-1726
tyupa	-1727
uklaḥ	-1728
varti	-1729
veśha	-1730
vidhi	-1731
vidho	-1732
yanto	-1733
▁ahaḥ	-1734
▁aśhā	-1735
▁dehī	-1736
▁ekaṁ	-1737
▁enaṁ	-1738
▁etat	-1739
▁evam	-1740
▁gata	-1741
▁gatī	-1742
▁kari	-1743
▁kāra	-1744
▁kūṭa	-1745
▁mach	-1746
▁mahe	-1747
▁mate	-1748
▁mayy	-1749
▁nira	-1750
▁niyo	-1751
▁nopa	-1752
▁nāti	-1753
▁paśh	-1754
▁pral	-1755
▁puṣh	-1756
▁pāva	-1757
▁roma	-1758
▁rājā	-1759
▁sāma	-1760
▁tach	-1761
▁tejo	-1762
▁trai	-1763
▁tāni	-1764
▁vina	-1765
▁vāpi	-1766
▁yadi	-1767
▁īdṛi	-1768
▁śhat	-1769
▁śhro	-1770
bdādīn	-1771
bhavān	-1772
brahma	-1773
dharmo	-1774
dāsīna	-1775
grāmam	-1776
jñānam	-1777
kriyāḥ	-1778
kṛitaṁ	-1779
kṣhara	-1780
kṣhate	-1781
kṣhiṇā	-1782
mukham	-1783
mṛitam	-1784
mṛitya	-1785
nṣhṭrā	-1786
phalaṁ	-1787
prāpya	-1788
rathāḥ	-1789
rupada	-1790
sthāni	-1791
sukhaḥ	-1792
tasmād	-1793
toṣhṇa	-1794
uddhir	-1795
vaktra	-1796
viṣhṭo	-1797
vyathi	-1798
vādhyā	-1799
yantaḥ	-1800
ñjayaḥ	-1801
śhukla	-1802
ṣhyāmi	-1803
▁asmān	-1804
▁bhavā	-1805
▁bhayā	-1806
▁bhīmā	-1807
▁chara	-1808
▁chāpy	-1809
▁devān	-1810
▁dvand	-1811
▁hyete	-1812
▁jagad	-1813
▁kālaṁ	-1814
▁kāmaṁ	-1815
▁labha	-1816
▁mahad	-1817
▁manya	-1818
▁manye	-1819
▁matvā	-1820
▁mukta	-1821
▁munir	-1822
▁namas	-1823
▁padaṁ	-1824
▁paṇḍi	-1825
▁prapa	-1826
▁prasa	-1827
▁prāṇe	-1828
▁punas	-1829
▁sahas	-1830
▁samaḥ	-1831
▁samaṁ	-1832
▁samya	-1833
▁sansi	-1834
▁sukha	-1835
▁sukhī	-1836
▁sukṛi	-1837
▁tamaḥ	-1838
▁tatam	-1839
▁tejas	-1840
▁uktvā	-1841
▁vichā	-1842
▁vidur	-1843
▁vimuk	-1844
▁viśhu	-1845
▁yajñā	-1846
▁yonir	-1847
▁yuñja	-1848
▁yātya	-1849
▁āsthi	-1850
▁āsurī	-1851
▁śhūrā	-1852
bhaktaḥ	-1853
bhūyāya	-1854
chetasā	-1855
dveṣhau	-1856
kṛiṣhṇe	-1857
prayātā	-1858
rāyaṇam	-1859
saṅgena	-1860
spṛihaḥ	-1861
vivarji	-1862
yoniṣhu	-1863
śhchana	-1864
śhrayaḥ	-1865
▁ahankā	-1866
▁aiśhwa	-1867
▁anusma	-1868
▁anyayā	-1869
▁bhakti	-1870
▁bhavān	-1871
▁bhāvam	-1872
▁brāhma	-1873
▁daivīm	-1874
▁darpaṁ	-1875
▁doṣhaṁ	-1876
▁dṛiḍha	-1877
▁evābhi	-1878
▁guḍāke	-1879
▁hantuṁ	-1880
▁hyātma	-1881
▁karoti	-1882
▁kurute	-1883
▁kāryaṁ	-1884
▁nivṛit	-1885
▁rātris	-1886
▁saṅgaṁ	-1887
▁tyāgaḥ	-1888
▁vidyād	-1889
▁yajñaṁ	-1890
▁yeṣhāṁ	-1891
▁yogena	-1892
▁yuddhe	-1893
▁yuktaḥ	-1894
▁ātmanā	-1895
▁śhikha	-1896
dṛiṣhṭvā	-1897
jāmyaham	-1898
pratiṣhṭ	-1899
sarvāram	-1900
śhraddhā	-1901
ṇīndriyā	-1902
▁avasthi	-1903
▁aśhnute	-1904
▁chainaṁ	-1905
▁chaivān	-1906
▁chakṣhu	-1907
▁drupada	-1908
▁indriyā	-1909
▁janmani	-1910
▁karmaṇo	-1911
▁kiñchit	-1912
▁krodhaṁ	-1913
▁kṛitsna	-1914
▁kṣhetra	-1915
▁mahātma	-1916
▁mahātmā	-1917
▁manyate	-1918
▁niśhcha	-1919
▁niśhchi	-1920
▁nāśhāya	-1921
▁paramāṁ	-1922
▁pravada	-1923
▁prayātā	-1924
▁rājasaṁ	-1925
▁sakheti	-1926
▁sattvam	-1927
▁sukhāni	-1928
▁tamasaḥ	-1929
▁upāśhri	-1930
▁yajante	-1931
▁yoginām	-1932
▁śhastra	-1933
▁śhaṅkhā	-1934
▁śhuklaḥ	-1935
▁śhāntir	-1936
▁śhāstra	-1937
bhijāyate	-1938
buddhayaḥ	-1939
gachchhan	-1940
kalmaṣhāḥ	-1941
ndramasaṁ	-1942
parityāgī	-1943
vatiṣhṭha	-1944
vyavasthi	-1945
śhabdādīn	-1946
▁achintya	-1947
▁adhyātma	-1948
▁akṣharam	-1949
▁avyaktaṁ	-1950
▁bhūtānām	-1951
▁bhūtānāṁ	-1952
▁brahmaṇo	-1953
▁dakṣhiṇā	-1954
▁dhārayan	-1955
▁draṣhṭum	-1956
▁dṛiṣhṭvā	-1957
▁karmaṇām	-1958
▁kaśhchid	-1959
▁kṛitsnaṁ	-1960
▁kṛiṣhṇaḥ	-1961
▁kṣhetraṁ	-1962
▁paśhyāmi	-1963
▁pralayaṁ	-1964
▁pṛithivī	-1965
▁sampadaṁ	-1966
▁sanyamya	-1967
▁viśhvato	-1968
▁āvṛittiṁ	-1969
▁śhaucham	-1970
yanamtatra	-1971
▁achetasaḥ	-1972
▁avāpsyasi	-1973
▁kaśhchana	-1974
▁keśhavana	-1975
▁mateekayā	-1976
▁paśhyanti	-1977
▁prakṛiter	-1978
▁pravyathi	-1979
▁samṛiddha	-1980
▁sāttvikaṁ	-1981
▁śhāśhvate	-1982
sanśhuddhir	-1983
▁dṛiṣhṭavān	-1984
▁janāḥdhūmo	-1985
▁pravṛittir	-1986
▁pravṛittiṁ	-1987
▁sansmṛitya	-1988
▁uvāchaevam	-1989
rāyaṇamtatra	-1990
▁prapadyante	-1991
▁chāndramasaṁ	-1992
▁pratiṣhṭhitā	-1993
▁puruṣhottama	-1994
▁tvanāvṛittim	-1995
▁anyayāvartate	-1996
indriyāṇīndriyā	-1997
▁yoginaḥprayātā	-1998
▁yātyanāvṛittim	-1999
▁nivartateśhukla	-2000
gi	-2001
ny	-2002
pū	-2003
āḍ	-2004
īn	-2005
anā	-2006
art	-2007
avi	-2008
das	-2009
dhm	-2010
dāḥ	-2011
ghv	-2012
ghā	-2013
gnā	-2014
gre	-2015
het	-2016
hir	-2017
hit	-2018
hna	-2019
hus	-2020
ite	-2021
jit	-2022
jyā	-2023
jñi	-2024
khi	-2025
kār	-2026
lāṁ	-2027
may	-2028
mno	-2029
myā	-2030
māt	-2031
niḥ	-2032
ntī	-2033
ovi	-2034
psu	-2035
pye	-2036
red	-2037
rhā	-2038
rāt	-2039
rīn	-2040
rīr	-2041
rīṭ	-2042
sad	-2043
sat	-2044
sāt	-2045
sāḥ	-2046
sūn	-2047
tsā	-2048
tte	-2049
tye	-2050
tyo	-2051
tās	-2052
urū	-2053
vai	-2054
vet	-2055
vāk	-2056
ṅgā	-2057
ṇāt	-2058
▁bo	-2059
▁du	-2060
▁gā	-2061
▁lā	-2062
▁mū	-2063
▁nu	-2064
atha	-2065
bahu	-2066
bahū	-2067
bdaḥ	-2068
bhau	-2069
bhuḥ	-2070
char	-2071
dhāḥ	-2072
etad	-2073
gate	-2074
gnau	-2075
hara	-2076
hasi	-2077
hata	-2078
havo	-2079
hite	-2080
hopa	-2081
huśh	-2082
ibya	-2083
itad	-2084
iṣhu	-2085
jasy	-2086
jaya	-2087
jyam	-2088
jāmi	-2089
jānī	-2090
kair	-2091
ketu	-2092
kitā	-2093
kiśh	-2094
kuru	-2095
kṣhī	-2096
lama	-2097
mahe	-2098
mama	-2099
mamo	-2100
masy	-2101
matā	-2102
mayy	-2103
maṇi	-2104
moha	-2105
mohā	-2106
naiḥ	-2107
namo	-2108
nava	-2109
ntaḥ	-2110
nyad	-2111
nyaḥ	-2112
paro	-2113
pena	-2114
rtho	-2115
rātr	-2116
sama	-2117
sate	-2118
sevī	-2119
spar	-2120
stha	-2121
stya	-2122
sāra	-2123
taro	-2124
tatā	-2125
tima	-2126
tita	-2127
trur	-2128
tsya	-2129
ttha	-2130
tīha	-2131
tṛip	-2132
tṛit	-2133
utrā	-2134
uṣha	-2135
veda	-2136
vidā	-2137
vimu	-2138
viśh	-2139
vīrā	-2140
yadi	-2141
yama	-2142
yayā	-2143
yaśh	-2144
āśhī	-2145
śhān	-2146
śhāt	-2147
ūrya	-2148
▁alo	-2149
▁amī	-2150
▁bhe	-2151
▁dvi	-2152
▁eka	-2153
▁ete	-2154
▁kal	-2155
▁mṛi	-2156
▁pur	-2157
▁sañ	-2158
▁saṁ	-2159
▁sug	-2160
▁sve	-2161
▁sām	-2162
▁tvi	-2163
▁vyu	-2164
▁vṛi	-2165
▁yas	-2166
▁yuñ	-2167
▁āga	-2168
bandh	-2169
bhavi	-2170
bhena	-2171
bhira	-2172
bhāga	-2173
bhīṣh	-2174
bāhuḥ	-2175
chāpa	-2176
davaṁ	-2177
ddhaḥ	-2178
deṣhu	-2179
dhmuḥ	-2180
dhāra	-2181
dhāya	-2182
droho	-2183
drupa	-2184
dvand	-2185
dānaṁ	-2186
eṣhvā	-2187
gavan	-2188
gāṇḍī	-2189
hatvā	-2190
hinna	-2191
hārāḥ	-2192
hṛiṇu	-2193
jjate	-2194
jñena	-2195
kaukā	-2196
keṣhu	-2197
kriyā	-2198
kulaḥ	-2199
kṛito	-2200
kṣhaṁ	-2201
lamte	-2202
lasya	-2203
lyate	-2204
manyu	-2205
manāḥ	-2206
masau	-2207
maujā	-2208
meyam	-2209
midam	-2210
mānaṁ	-2211
mūḍhā	-2212
mṛito	-2213
nagha	-2214
nimit	-2215
ntara	-2216
ntaśh	-2217
nyeva	-2218
nānāṁ	-2219
nāyaṁ	-2220
nāśha	-2221
nīṣhi	-2222
param	-2223
paras	-2224
phalā	-2225
pnoti	-2226
pramā	-2227
priyo	-2228
putro	-2229
puṅga	-2230
pūrva	-2231
rasya	-2232
ratha	-2233
rthān	-2234
ruvam	-2235
rācha	-2236
rāṇāṁ	-2237
rūḍha	-2238
sahas	-2239
santu	-2240
sthaḥ	-2241
straṁ	-2242
tataḥ	-2243
tavaḥ	-2244
tmani	-2245
tāraṁ	-2246
valaṁ	-2247
vatām	-2248
veṣhu	-2249
vidyā	-2250
vitaḥ	-2251
viśhā	-2252
vādam	-2253
yaiva	-2254
yasya	-2255
yasyā	-2256
yataṁ	-2257
yathā	-2258
yatām	-2259
yogam	-2260
yātmā	-2261
āḍhyo	-2262
īśhva	-2263
śhanā	-2264
śhaśh	-2265
śhche	-2266
śhiro	-2267
śhirā	-2268
śhita	-2269
śhrad	-2270
ṅgate	-2271
ṇamya	-2272
ṣhīda	-2273
ṣhṭaṁ	-2274
ṣhṭha	-2275
▁adha	-2276
▁adya	-2277
▁agre	-2278
▁akṛi	-2279
▁asti	-2280
▁atra	-2281
▁chha	-2282
▁chin	-2283
▁chit	-2284
▁divi	-2285
▁etān	-2286
▁etāṁ	-2287
▁eṣha	-2288
▁govi	-2289
▁gṛih	-2290
▁hani	-2291
▁hrīr	-2292
▁ityu	-2293
▁jātu	-2294
▁kadā	-2295
▁kavi	-2296
▁kaśh	-2297
▁kena	-2298
▁kāya	-2299
▁maru	-2300
▁matā	-2301
▁modi	-2302
▁māma	-2303
▁mānu	-2304
▁niha	-2305
▁nānā	-2306
▁nāra	-2307
▁pata	-2308
▁pāpā	-2309
▁rama	-2310
▁raṇe	-2311
▁spar	-2312
▁sraṁ	-2313
▁svām	-2314
▁trīn	-2315
▁tvak	-2316
▁ugra	-2317
▁vedi	-2318
▁vidi	-2319
▁viṣh	-2320
▁vāsu	-2321
▁yogā	-2322
▁yāda	-2323
▁āram	-2324
▁śhva	-2325
ananta	-2326
bandha	-2327
bhadra	-2328
bhadro	-2329
bhakto	-2330
bhaktā	-2331
bhavam	-2332
bhayaṁ	-2333
bhyasū	-2334
bhyate	-2335
bhyaśh	-2336
brahmā	-2337
bravīt	-2338
chetāḥ	-2339
chinta	-2340
daivaṁ	-2341
darśhi	-2342
dharma	-2343
dhyāna	-2344
dyumno	-2345
dṛiṣhṭ	-2346
kriyaḥ	-2347
krodho	-2348
krānta	-2349
kāñcha	-2350
kṣhaye	-2351
lobhaḥ	-2352
loṣhṭā	-2353
mānitā	-2354
nivāsa	-2355
ntibho	-2356
pahata	-2357
puṣhpa	-2358
riyate	-2359
rāśhīr	-2360
sarvaṁ	-2361
sṛijya	-2362
tarāśh	-2363
tasmāt	-2364
teṣhām	-2365
teṣhāṁ	-2366
ttamam	-2367
varṇaṁ	-2368
vidhaḥ	-2369
vidhāḥ	-2370
vihāra	-2371
yajñaḥ	-2372
yasmin	-2373
yuktaḥ	-2374
yābhir	-2375
śhubha	-2376
ṣhayaḥ	-2377
ṣhvāsā	-2378
ṣhīṇāṁ	-2379
▁abhya	-2380
▁abhyā	-2381
▁anyaḥ	-2382
▁anādi	-2383
▁apari	-2384
▁bahir	-2385
▁bandh	-2386
▁bhogī	-2387
▁bhāvo	-2388
▁bhāvā	-2389
▁bhūyo	-2390
▁chhru	-2391
▁chāpi	-2392
▁devar	-2393
▁divya	-2394
▁gatvā	-2395
▁hanti	-2396
▁hataḥ	-2397
▁hutam	-2398
▁hṛidi	-2399
▁jagan	-2400
▁jvala	-2401
▁jyoti	-2402
▁jñāni	-2403
▁jñānī	-2404
▁katha	-2405
▁kirīṭ	-2406
▁kuntī	-2407
▁kṛipa	-2408
▁laghv	-2409
▁mahar	-2410
▁mahat	-2411
▁matam	-2412
▁mataḥ	-2413
▁metad	-2414
▁moham	-2415
▁mādha	-2416
▁mūḍha	-2417
▁mūḍhā	-2418
▁nidhā	-2419
▁nodvi	-2420
▁pralī	-2421
▁pravi	-2422
▁priya	-2423
▁priyo	-2424
▁pūrva	-2425
▁ratāḥ	-2426
▁rājan	-2427
▁santu	-2428
▁sātya	-2429
▁tapaḥ	-2430
▁tasyā	-2431
▁uktaṁ	-2432
▁vepat	-2433
▁vāyur	-2434
▁yaśho	-2435
▁yaḥsa	-2436
▁yodha	-2437
▁āchār	-2438
▁āhave	-2439
▁āsura	-2440
▁āsīta	-2441
▁śhṛiṇ	-2442
bandhaṁ	-2443
bhavāmi	-2444
bhijana	-2445
chakṣhu	-2446
dahyate	-2447
dbhutaṁ	-2448
dharmaṁ	-2449
dhyasva	-2450
drupado	-2451
iśhunam	-2452
jyateya	-2453
kitānaḥ	-2454
krodhas	-2455
kṣhetre	-2456
luptvaṁ	-2457
mahinsā	-2458
ndriyaḥ	-2459
nirmamo	-2460
nuvanti	-2461
paśhchi	-2462
paśhyad	-2463
purujit	-2464
rabhate	-2465
senayor	-2466
sthātuṁ	-2467
udāsīna	-2468
vibhūta	-2469
vijayaṁ	-2470
yakṣhye	-2471
yatamaṁ	-2472
yudhāno	-2473
īśhvaro	-2474
śhiṣhṭā	-2475
▁achala	-2476
▁achāpa	-2477
▁adroho	-2478
▁aśhvat	-2479
▁bhaktā	-2480
▁bhayaṁ	-2481
▁bhoktā	-2482
▁bhrama	-2483
▁boddha	-2484
▁brahmā	-2485
▁buddhe	-2486
▁chatur	-2487
▁chinta	-2488
▁chādhi	-2489
▁chāham	-2490
▁chāhaṁ	-2491
▁damaśh	-2492
▁dhyāya	-2493
▁dhīras	-2494
▁hastāt	-2495
▁jagato	-2496
▁kartuṁ	-2497
▁manaśh	-2498
▁nainaṁ	-2499
▁pautrā	-2500
▁prajāḥ	-2501
▁prasṛi	-2502
▁pravṛi	-2503
▁prokta	-2504
▁prāhur	-2505
▁prāṇam	-2506
▁pārthā	-2507
▁rājasī	-2508
▁sarvaṁ	-2509
▁sarvāḥ	-2510
▁satyam	-2511
▁siddho	-2512
▁siddhā	-2513
▁sthāpa	-2514
▁tyajet	-2515
▁tāmasī	-2516
▁upaiti	-2517
▁vachaḥ	-2518
▁viddhy	-2519
▁vihāya	-2520
▁vyāsaḥ	-2521
▁yajñaḥ	-2522
▁yotsya	-2523
▁yuddhā	-2524
▁āpnoti	-2525
▁śhamaḥ	-2526
▁śhatru	-2527
▁śhubhā	-2528
▁śhucha	-2529
▁śhānto	-2530
chchhasi	-2531
chetasām	-2532
danṣhṭrā	-2533
dhṛiṣhṭa	-2534
dvāreṣhu	-2535
eṣhvāsaḥ	-2536
gāṇḍīvaṁ	-2537
hankāraḥ	-2538
hankāraṁ	-2539
harṣhaśh	-2540
hārajasy	-2541
karmaṇaḥ	-2542
karmaṇām	-2543
karālāni	-2544
kīrtitaḥ	-2545
lamtejaḥ	-2546
maheśhva	-2547
ndadhmuḥ	-2548
prakāśho	-2549
puṅgavaḥ	-2550
pūrvakam	-2551
rācharam	-2552
sammohaḥ	-2553
samudram	-2554
tasyāhaṁ	-2555
tiḥdānaṁ	-2556
vimuchya	-2557
viśheṣha	-2558
yendriya	-2559
yuktasya	-2560
yuktānāṁ	-2561
yuktātmā	-2562
ṣhṭabhya	-2563
ṣhṭhiraḥ	-2564
▁arhasya	-2565
▁astīdam	-2566
▁avyaktā	-2567
▁aśhamaḥ	-2568
▁balavān	-2569
▁buddhiṁ	-2570
▁chañcha	-2571
▁chetasā	-2572
▁chhṛiṇu	-2573
▁chāpare	-2574
▁dehinam	-2575
▁deveśha	-2576
▁dhīmatā	-2577
▁diśhaśh	-2578
▁duḥkham	-2579
▁dāsyāmi	-2580
▁karmasu	-2581
▁kevalaṁ	-2582
▁kiñchid	-2583
▁kāśhirā	-2584
▁labdham	-2585
▁labhate	-2586
▁lipyate	-2587
▁madhyaṁ	-2588
▁manyase	-2589
▁manīṣhi	-2590
▁nakulaḥ	-2591
▁narādha	-2592
▁neṅgate	-2593
▁niyataṁ	-2594
▁niṣhṭhā	-2595
▁pramādo	-2596
▁prāpsye	-2597
▁rājasam	-2598
▁sahasra	-2599
▁sarvato	-2600
▁siddhim	-2601
▁smṛitam	-2602
▁smṛitir	-2603
▁sthitaḥ	-2604
▁sthitiḥ	-2605
▁sthānaṁ	-2606
▁svādhyā	-2607
▁tavedaṁ	-2608
▁tribhir	-2609
▁vartamā	-2610
▁vartate	-2611
▁vibhūti	-2612
▁vindati	-2613
▁viśhvam	-2614
▁vyavasā	-2615
▁yajñaśh	-2616
▁yatātmā	-2617
▁yudhiyu	-2618
▁āveśhya	-2619
▁āvṛitya	-2620
▁śhaibya	-2621
▁śhatrur	-2622
▁śhreyān	-2623
bhijānāti	-2624
chintayan	-2625
dahyatena	-2626
devaśhcha	-2627
duḥkheṣhu	-2628
kaukāśhya	-2629
ketuśhche	-2630
kāñchanaḥ	-2631
nimittāni	-2632
papadyate	-2633
parāyaṇaḥ	-2634
prāṇāpāna	-2635
sambhavaḥ	-2636
saubhadro	-2637
saṅgraham	-2638
tarāśhtra	-2639
vasthitāḥ	-2640
vimohitāḥ	-2641
śhuddhaye	-2642
śhītoṣhṇa	-2643
▁akrodhas	-2644
▁akṣharaṁ	-2645
▁avāpnoti	-2646
▁bhagavan	-2647
▁bhajante	-2648
▁bhūteṣhv	-2649
▁chāparān	-2650
▁chārjuna	-2651
▁dharmyaṁ	-2652
▁dhṛiṣhṭa	-2653
▁dravanti	-2654
▁draṣhṭuṁ	-2655
▁haniṣhye	-2656
▁karmaṇya	-2657
▁karmaṇāṁ	-2658
▁kartāram	-2659
▁kaśhchit	-2660
▁kuntibho	-2661
▁labhante	-2662
▁modiṣhya	-2663
▁mārdavaṁ	-2664
▁nirmamaḥ	-2665
▁pavitram	-2666
▁paṇḍitāḥ	-2667
▁prabhava	-2668
▁pramāṇaṁ	-2669
▁sadṛiśho	-2670
▁samagraṁ	-2671
▁sraṁsate	-2672
▁sughoṣha	-2673
▁vikrānta	-2674
▁vyudasya	-2675
▁ārambhaḥ	-2676
▁āśhritya	-2677
▁īdṛiśham	-2678
▁śhaknomy	-2679
▁śharaṇaṁ	-2680
▁śhraddha	-2681
▁ṛiṣhayaḥ	-2682
bhijanavān	-2683
kṣhetrajña	-2684
loṣhṭāśhma	-2685
manyuśhcha	-2686
maujāśhcha	-2687
maṇipuṣhpa	-2688
niśhchayaḥ	-2689
nupaśhyāmi	-2690
paśhchitaḥ	-2691
pāśhritaḥa	-2692
rathamidam	-2693
vibhūtayaḥ	-2694
śhraddadhā	-2695
▁adhyātmaṁ	-2696
▁aiśhwaram	-2697
▁aprameyam	-2698
▁bhaktimān	-2699
▁chatamasy	-2700
▁dharmasya	-2701
▁mokṣhyase	-2702
▁pitāmahaḥ	-2703
▁prasabhaṁ	-2704
▁pāṇḍavana	-2705
▁sannyasya	-2706
▁sanātanaḥ	-2707
▁sanśhayaḥ	-2708
▁saubhadra	-2709
▁sañjāyate	-2710
▁sātyakiśh	-2711
▁tathāpare	-2712
▁upajāyate	-2713
▁utalobhaḥ	-2714
▁vairāgyaṁ	-2715
▁vepathuśh	-2716
▁viṣhayāns	-2717
▁śhikhaṇḍī	-2718
▁śhochitum	-2719
dhārtarāṣhṭ	-2720
iśhunamdayā	-2721
nāpamānayoḥ	-2722
pravṛittiśh	-2723
sarvārambha	-2724
▁aloluptvaṁ	-2725
▁apiīśhvaro	-2726
▁avasthitān	-2727
▁avasthātuṁ	-2728
▁aśheṣhataḥ	-2729
▁bhavārjuna	-2730
▁bhramatīva	-2731
▁bhīmārjuna	-2732
▁boddhavyaṁ	-2733
▁chavivikta	-2734
▁dhanamasau	-2735
▁maheṣhvāsā	-2736
▁nibadhyate	-2737
▁nivartante	-2738
▁parigraham	-2739
▁sukhīāḍhyo	-2740
▁svādhyāyas	-2741
▁vichālyate	-2742
▁viparītāni	-2743
▁vivṛiddhaṁ	-2744
▁śhraddhayā	-2745
▁śhāśhvataṁ	-2746
jitaḥdrupado	-2747
▁abhijātasya	-2748
▁avaṣhṭabhya	-2749
▁bhaviṣhyati	-2750
▁dhanañjayaḥ	-2751
▁mayāyakṣhye	-2752
▁praṇaśhyati	-2753
▁uvāchaparaṁ	-2754
▁viśhuddhayā	-2755
mānasaḥdhyāna	-2756
puṅgavaḥyudhā	-2757
▁bhāratasarva	-2758
▁chaśhabdādīn	-2759
▁drupadaśhcha	-2760
▁nirahankāraḥ	-2761
▁pravakṣhyāmi	-2762
▁pṛithaktvena	-2763
▁spṛihārajasy	-2764
▁uvāchasannyā	-2765
▁śhaibyaśhcha	-2766
kaukāśhyaśhcha	-2767
mānitābhavanti	-2768
rathaḥdhṛiṣhṭa	-2769
▁anantavijayaṁ	-2770
▁dhṛitarāśhtra	-2771
▁dhṛityātmānaṁ	-2772
▁mānāpamānayoḥ	-2773
▁parameṣhvāsaḥ	-2774
▁paridahyatena	-2775
▁sahadevaśhcha	-2776
▁uvāchaabhayaṁ	-2777
▁yudhiṣhṭhiraḥ	-2778
▁ārjavamahinsā	-2779
▁achāpalamtejaḥ	-2780
▁adhigachchhati	-2781
▁apaiśhunamdayā	-2782
▁dhṛiṣhṭadyumno	-2783
▁jāyategāṇḍīvaṁ	-2784
▁kāśhirājaśhcha	-2785
▁manaḥnimittāni	-2786
▁manorathamidam	-2787
▁samupāśhritaḥa	-2788
▁saubhadraśhcha	-2789
▁uttamaujāśhcha	-2790
▁yudhiyuyudhāno	-2791
ketuśhchekitānaḥ	-2792
▁kuntibhojaśhcha	-2793
▁upajāyatejñānaṁ	-2794
▁vīryavānpurujit	-2795
▁śhaṅkhāndadhmuḥ	-2796
du	-2797
ed	-2798
sv	-2799
ns	-2800
wi	-2801
ñl	-2802
īḥ	-2803
ūn	-2804
▁n	-2805
ani	-2806
api	-2807
ava	-2808
chh	-2809
chī	-2810
dhu	-2811
dir	-2812
dyā	-2813
dām	-2814
ehe	-2815
enā	-2816
evā	-2817
gam	-2818
gar	-2819
gau	-2820
gna	-2821
grī	-2822
hai	-2823
huṁ	-2824
hāa	-2825
hār	-2826
ika	-2827
irā	-2828
ive	-2829
ivo	-2830
jān	-2831
khā	-2832
kle	-2833
kra	-2834
ksa	-2835
kur	-2836
kāḥ	-2837
lir	-2838
map	-2839
mnā	-2840
māl	-2841
mār	-2842
nim	-2843
ntā	-2844
nān	-2845
oda	-2846
pañ	-2847
paḥ	-2848
pro	-2849
pur	-2850
pāp	-2851
pāḥ	-2852
rju	-2853
sāg	-2854
tab	-2855
toḥ	-2856
trī	-2857
tuḥ	-2858
tīḥ	-2859
unī	-2860
uṇa	-2861
vas	-2862
vij	-2863
vir	-2864
vāḥ	-2865
vāṅ	-2866
yai	-2867
yaj	-2868
yus	-2869
yāj	-2870
ñji	-2871
īha	-2872
īni	-2873
ūme	-2874
ḥtā	-2875
ṇau	-2876
ṇur	-2877
ṇād	-2878
ṣhū	-2879
▁dū	-2880
▁hy	-2881
▁li	-2882
▁nī	-2883
▁rū	-2884
▁sv	-2885
▁tū	-2886
▁un	-2887
▁vo	-2888
ahaṁ	-2889
bara	-2890
bhas	-2891
bhis	-2892
bānd	-2893
chha	-2894
chir	-2895
daye	-2896
daśh	-2897
dehi	-2898
devā	-2899
mūr	-2900
nīṁ	-2901
yūḍ	-2902
ddhu	-2903
deśh	-2904
dhuk	-2905
dhvā	-2906
dhye	-2907
dhīḥ	-2908
duṣh	-2909
dāmi	-2910
etān	-2911
evaṁ	-2912
gatī	-2913
ghaṁ	-2914
haiḥ	-2915
hyaṁ	-2916
hyān	-2917
hānu	-2918
hāsā	-2919
ikaṁ	-2920
inaṁ	-2921
itra	-2922
itān	-2923
ivam	-2924
jahi	-2925
jair	-2926
jasā	-2927
jayo	-2928
jena	-2929
karo	-2930
ktuṁ	-2931
ktāḥ	-2932
kyaṁ	-2933
kāda	-2934
kāmā	-2935
lepa	-2936
leva	-2937
mahā	-2938
manā	-2939
mara	-2940
maye	-2941
meti	-2942
myam	-2943
mādi	-2944
mātu	-2945
māṇā	-2946
nakā	-2947
nanā	-2948
naya	-2949
naśh	-2950
neha	-2951
nekā	-2952
ntiṁ	-2953
nyāy	-2954
nāmi	-2955
nāsi	-2956
pamā	-2957
pite	-2958
pitā	-2959
praṁ	-2960
prāp	-2961
puna	-2962
pāla	-2963
pāmy	-2964
pāṇa	-2965
rāṇi	-2966
rīra	-2967
rūhi	-2968
sahā	-2969
senā	-2970
sikā	-2971
svap	-2972
sādh	-2973
tado	-2974
tadā	-2975
tamā	-2976
tare	-2977
tato	-2978
tayā	-2979
tino	-2980
tras	-2981
trau	-2982
ttaṁ	-2983
tyaḥ	-2984
tāna	-2985
tāyu	-2986
tāśh	-2987
tīkā	-2988
vach	-2989
vade	-2990
vaga	-2991
vani	-2992
vara	-2993
vasā	-2994
vayo	-2995
vinā	-2996
vyāṁ	-2997
vāda	-2998
vāna	-2999
eko	-3000
guh	-3001
ṇor	-3002
jyād	-3003
jīva	-3004
khye	-3005
māṁs	-3006
nasū	-3007
neko	-3008
seva	-3009
syāḥ	-3010
tejo	-3011
vāni	-3012
vāns	-3013
vānu	-3014
vāpi	-3015
vāyo	-3016
vāṇi	-3017
yame	-3018
yeha	-3019
yogi	-3020
yope	-3021
yāne	-3022
yāti	-3023
ātmā	-3024
śhay	-3025
śhna	-3026
śhru	-3027
śhāṅ	-3028
ūrṇi	-3029
ḥśhu	-3030
ṇeva	-3031
ṇāma	-3032
ṇāme	-3033
ṇātī	-3034
ṇāya	-3035
ṇāṁs	-3036
ṣhir	-3037
ṣhṇu	-3038
ṣhṇī	-3039
▁aho	-3040
▁ama	-3041
▁ati	-3042
▁aṇī	-3043
▁bṛi	-3044
▁dhi	-3045
▁dvā	-3046
▁eke	-3047
▁eti	-3048
▁gra	-3049
▁hin	-3050
▁hyā	-3051
▁ivā	-3052
▁jīr	-3053
▁kle	-3054
▁kra	-3055
▁krū	-3056
▁naḥ	-3057
▁niḥ	-3058
▁nṛi	-3059
▁pre	-3060
▁rat	-3061
▁tau	-3062
▁tve	-3063
▁tṛi	-3064
▁upā	-3065
▁vra	-3066
▁vār	-3067
▁yuj	-3068
▁yāṁ	-3069
▁āvi	-3070
apare	-3071
arṣha	-3072
bhayo	-3073
bhoja	-3074
bhūya	-3075
bhṛit	-3076
chaiḥ	-3077
chana	-3078
chati	-3079
chita	-3080
chāro	-3081
dayan	-3082
ddham	-3083
ddhvā	-3084
devam	-3085
devaḥ	-3086
deśhe	-3087
dhāmy	-3088
dinaḥ	-3089
dinaṁ	-3090
dityā	-3091
divya	-3092
divyā	-3093
dānśh	-3094
dīnāṁ	-3095
guṇaḥ	-3096
haitu	-3097
havān	-3098
hinnā	-3099
mbu	-3100
arāt	-3101
mīti	-3102
peṇa	-3103
rann	-3104
stri	-3105
ṅkte	-3106
▁upe	-3107
▁ṛik	-3108
bhumā	-3109
drohe	-3110
dvega	-3111
hinas	-3112
hitam	-3113
hnato	-3114
hyaiḥ	-3115
hānāṁ	-3116
hīnam	-3117
hīyaṁ	-3118
hṛita	-3119
jyayā	-3120
karam	-3121
karaḥ	-3122
kasya	-3123
katha	-3124
kilbi	-3125
kāmān	-3126
labha	-3127
lagnā	-3128
lapan	-3129
lokaṁ	-3130
lokya	-3131
madān	-3132
manaḥ	-3133
matir	-3134
matiḥ	-3135
matāṁ	-3136
mayam	-3137
metad	-3138
midaṁ	-3139
mikām	-3140
mimāṁ	-3141
mukhā	-3142
māṅga	-3143
mūḍho	-3144
mṛita	-3145
naḥsa	-3146
nityā	-3147
nuyām	-3148
nāhaṁ	-3149
nānto	-3150
nāśho	-3151
nīnām	-3152
padye	-3153
pamam	-3154
pitāṁ	-3155
priyā	-3156
psunā	-3157
pyete	-3158
pādau	-3159
pānaṁ	-3160
ramed	-3161
ranti	-3162
rataḥ	-3163
ratāḥ	-3164
ruvor	-3165
rājya	-3166
rīraṁ	-3167
rūpaṁ	-3168
sakta	-3169
saktā	-3170
saman	-3171
samaḥ	-3172
samaṁ	-3173
sanaṁ	-3174
sanna	-3175
savaḥ	-3176
saṅgo	-3177
smadī	-3178
surīṁ	-3179
syati	-3180
sātma	-3181
takam	-3182
tamaḥ	-3183
taraḥ	-3184
taḥna	-3185
tiḥmā	-3186
tmano	-3187
tmānu	-3188
trāri	-3189
tāñja	-3190
tīnāṁ	-3191
tītya	-3192
uktvā	-3193
vasva	-3194
vaśho	-3195
vetti	-3196
vidāṁ	-3197
vinau	-3198
vinām	-3199
bāhū	-3200
yājī	-3201
ṇann	-3202
▁soḍ	-3203
ajāna	-3204
balān	-3205
dhmau	-3206
nidrā	-3207
trāṇy	-3208
viṣhā	-3209
vyapā	-3210
vyāmi	-3211
vānāṁ	-3212
warya	-3213
yinaḥ	-3214
yogād	-3215
yālāḥ	-3216
yāmya	-3217
yānāṁ	-3218
āgame	-3219
śhast	-3220
śhena	-3221
śhyat	-3222
ṇaiva	-3223
ṣhkar	-3224
ṣhyāḥ	-3225
ṣhṭam	-3226
ṣhṭas	-3227
ṣhṭis	-3228
ṣhṭuṁ	-3229
ṣhṭān	-3230
▁adve	-3231
▁adṛi	-3232
▁ajam	-3233
▁ajas	-3234
▁ajaṁ	-3235
▁akar	-3236
▁anir	-3237
▁anye	-3238
▁apya	-3239
▁asat	-3240
▁badh	-3241
▁bahū	-3242
▁bata	-3243
▁bīja	-3244
▁ched	-3245
▁chhā	-3246
▁dehā	-3247
▁dhan	-3248
▁dhru	-3249
▁dāne	-3250
▁eṣhā	-3251
▁gand	-3252
▁garī	-3253
▁gatā	-3254
▁gehe	-3255
▁gurū	-3256
▁guṇe	-3257
▁imam	-3258
▁imāḥ	-3259
▁ivām	-3260
▁jarā	-3261
▁jaye	-3262
▁kach	-3263
▁kama	-3264
▁kapi	-3265
▁kule	-3266
▁kuto	-3267
▁mahi	-3268
▁mamā	-3269
▁mato	-3270
▁much	-3271
▁mune	-3272
▁mātā	-3273
▁niru	-3274
▁nirā	-3275
▁nirī	-3276
▁nivā	-3277
▁nāsā	-3278
▁pitr	-3279
▁pitā	-3280
▁pāpa	-3281
▁pāpe	-3282
▁pūru	-3283
▁rajo	-3284
▁raso	-3285
▁raṇa	-3286
▁sach	-3287
▁sami	-3288
▁samo	-3289
▁sati	-3290
▁seva	-3291
▁stab	-3292
▁sura	-3293
▁svaṁ	-3294
▁syād	-3295
▁syām	-3296
▁syān	-3297
▁syāt	-3298
▁tado	-3299
asat	-3300
asito	-3301
lokān	-3302
mohāt	-3303
pāpam	-3304
ruvoḥ	-3305
yajño	-3306
ñjigh	-3307
▁jīva	-3308
▁jīvi	-3309
▁syāj	-3310
▁sūta	-3311
▁tair	-3312
▁tanu	-3313
▁tayā	-3314
▁tvad	-3315
▁tvat	-3316
▁udya	-3317
▁ukto	-3318
▁uṣhi	-3319
▁varu	-3320
▁viji	-3321
▁vimo	-3322
▁vinā	-3323
▁vyak	-3324
▁vyūḍ	-3325
▁vāpy	-3326
▁vāye	-3327
▁vīta	-3328
▁yady	-3329
▁yaja	-3330
▁yato	-3331
▁yaśh	-3332
▁yuga	-3333
▁yuge	-3334
▁ācha	-3335
▁āchā	-3336
▁ādir	-3337
▁āhuḥ	-3338
▁āpūr	-3339
▁ātmā	-3340
▁āvṛi	-3341
▁śhab	-3342
▁ūrdh	-3343
asiddh	-3344
balena	-3345
bhayam	-3346
bhāvam	-3347
bhāvaṁ	-3348
bhāvān	-3349
bhūtaḥ	-3350
charan	-3351
chitte	-3352
chīnāṁ	-3353
dambhā	-3354
dbhuta	-3355
dharaṁ	-3356
dhikaḥ	-3357
dhāham	-3358
drāṇāṁ	-3359
dīptaṁ	-3360
gniṣhu	-3361
grahaṁ	-3362
grīvaṁ	-3363
hittvā	-3364
jantya	-3365
jayasi	-3366
jñānāg	-3367
jñāsur	-3368
karaśh	-3369
karṣha	-3370
khilam	-3371
kṛitāṁ	-3372
kṣhyaṁ	-3373
kṣhāya	-3374
labhaḥ	-3375
latvāt	-3376
madhyā	-3377
manasa	-3378
mantro	-3379
miṣhan	-3380
mālyām	-3381
māyayā	-3382
netram	-3383
netraṁ	-3384
nirmuk	-3385
niṣhuā	-3386
ntasya	-3387
ntataḥ	-3388
nyasta	-3389
pakṣha	-3390
pannaṁ	-3391
paramā	-3392
pradaḥ	-3393
pradām	-3394
prajña	-3395
praśha	-3396
priyam	-3397
pyante	-3398
rajasi	-3399
utsā	-3400
mohād	-3401
mārgi	-3402
sūrya	-3403
ubhau	-3404
hopala	-3405
jñitam	-3406
mūlama	-3407
paramo	-3408
rambhā	-3409
raḥsam	-3410
rtayaḥ	-3411
rātryā	-3412
sambhā	-3413
sandṛi	-3414
sanjña	-3415
sanpra	-3416
sanstu	-3417
sanyuk	-3418
sattva	-3419
sayate	-3420
saṅgaṁ	-3421
saṅghā	-3422
siddhy	-3423
sthito	-3424
stutir	-3425
syante	-3426
tasmān	-3427
tavyam	-3428
trāṇām	-3429
ttamaḥ	-3430
tyahar	-3431
tyāgas	-3432
tyāgaṁ	-3433
tītāni	-3434
tṛitve	-3435
uvācha	-3436
vahāsā	-3437
vaśhaḥ	-3438
vedyaṁ	-3439
vibhra	-3440
vidham	-3441
vidhim	-3442
vigate	-3443
viṣhṭa	-3444
vyakta	-3445
vyaktā	-3446
vyayam	-3447
vāchaṁ	-3448
vṛitāḥ	-3449
yajñās	-3450
yamyad	-3451
yasīva	-3452
yaśhaḥ	-3453
yānsam	-3454
yāptaṁ	-3455
yāsana	-3456
yāsane	-3457
yāvade	-3458
śhakya	-3459
śhitam	-3460
śhuchi	-3461
śhurāḥ	-3462
ḥsarve	-3463
ḥtāsāṁ	-3464
ṇāyāma	-3465
ṣhataḥ	-3466
ṣhyaty	-3467
ṣhṇeya	-3468
ṣhṭhas	-3469
ṣhṭānu	-3470
▁agnir	-3471
▁ajāna	-3472
▁anape	-3473
▁apāne	-3474
▁artha	-3475
▁arthe	-3476
▁asmin	-3477
▁atīto	-3478
▁auṣha	-3479
▁aśhra	-3480
▁bhavo	-3481
▁bravī	-3482
▁bījaṁ	-3483
▁chana	-3484
▁cheti	-3485
▁chhet	-3486
▁chhre	-3487
▁damaḥ	-3488
▁dehaṁ	-3489
▁devam	-3490
▁dhūme	-3491
▁doṣha	-3492
▁durni	-3493
▁dīpta	-3494
▁ebhiḥ	-3495
▁eveti	-3496
▁evānu	-3497
▁evāpi	-3498
▁gatir	-3499
itraḥ	-3500
hyānśh	-3501
putras	-3502
ramāṇā	-3503
▁anekā	-3504
▁brūhi	-3505
▁gatāḥ	-3506
▁ghore	-3507
▁hetoḥ	-3508
▁hyapi	-3509
▁imāṁs	-3510
▁indri	-3511
▁jñeyo	-3512
▁jāgra	-3513
▁karmā	-3514
▁kaviṁ	-3515
▁keṣhu	-3516
▁kilbi	-3517
▁kāryā	-3518
▁kṛita	-3519
▁labhe	-3520
▁lobho	-3521
▁lokam	-3522
▁lokas	-3523
▁lokāḥ	-3524
▁matiḥ	-3525
▁matta	-3526
▁maunī	-3527
▁medhā	-3528
▁mitra	-3529
▁mitre	-3530
▁mogha	-3531
▁niśhā	-3532
▁nārhā	-3533
▁nāsti	-3534
▁nītir	-3535
▁padam	-3536
▁paras	-3537
▁paraḥ	-3538
▁parām	-3539
▁pauru	-3540
▁phale	-3541
▁pramu	-3542
▁prasā	-3543
▁praya	-3544
▁prayu	-3545
▁praṇi	-3546
▁pāpam	-3547
▁pāpād	-3548
▁rājya	-3549
▁samau	-3550
▁sansā	-3551
▁suhṛi	-3552
▁syāma	-3553
▁sādhi	-3554
▁sādhu	-3555
▁tamas	-3556
▁tulya	-3557
▁tulyo	-3558
▁utkrā	-3559
▁vaiśh	-3560
▁varte	-3561
▁varṇa	-3562
▁vayaṁ	-3563
▁viddh	-3564
▁vidhi	-3565
▁vāyuḥ	-3566
▁yadṛi	-3567
▁yajur	-3568
▁yajñe	-3569
▁yasmā	-3570
▁yogaḥ	-3571
▁yonim	-3572
▁yuktā	-3573
▁yuyut	-3574
▁yānty	-3575
▁yāvān	-3576
▁ādyaṁ	-3577
▁ākhyā	-3578
▁āsīno	-3579
▁ātatā	-3580
▁śhrīr	-3581
ajānatā	-3582
aprāpya	-3583
bahulāṁ	-3584
bhaktam	-3585
bhaktaṁ	-3586
bhaktiṁ	-3587
bhaktyā	-3588
bhavaty	-3589
bhruvor	-3590
bhāvaśh	-3591
bhāvena	-3592
bhīṣhmo	-3593
chalena	-3594
chchaiḥ	-3595
chhinna	-3596
chittaḥ	-3597
darśham	-3598
dbhavaṁ	-3599
ddhartā	-3600
devasya	-3601
deśhyam	-3602
dharmam	-3603
dharmāt	-3604
dharmāḥ	-3605
dhāraya	-3606
dinaḥkā	-3607
dvandvo	-3608
dyatāyu	-3609
eśhvara	-3610
gandhar	-3611
gatāsūn	-3612
ghnānāṁ	-3613
hāḥmātu	-3614
ikāgraṁ	-3615
ivāvani	-3616
jyāyasī	-3617
karmaṇi	-3618
kriyate	-3619
kurumām	-3620
kādayaḥ	-3621
kṣharaṁ	-3622
kṣhitam	-3623
kṣhitaṁ	-3624
kṣhānsi	-3625
labhate	-3626
layatām	-3627
lepanam	-3628
levaram	-3629
lobhena	-3630
lokayan	-3631
mataraṁ	-3632
miṣhann	-3633
māditya	-3634
mānkṣhi	-3635
māṅgaiḥ	-3636
mīsantu	-3637
nayanam	-3638
niketaḥ	-3639
niyataṁ	-3640
niśhchi	-3641
nubandh	-3642
nyāyyaṁ	-3643
nātmani	-3644
pahṛita	-3645
pañśhva	-3646
paśhyan	-3647
paśhyañ	-3648
pitāham	-3649
prasādā	-3650
prasīda	-3651
pāṇayaḥ	-3652
ramaṇor	-3653
sansthā	-3654
sattama	-3655
sausahā	-3656
saṁsāra	-3657
saṅghāḥ	-3658
siddhau	-3659
siddhiṁ	-3660
stavāpi	-3661
sthitaḥ	-3662
sāgarāt	-3663
tumkula	-3664
tvainaṁ	-3665
tvaitān	-3666
tāhārāḥ	-3667
tāḥyadi	-3668
tīkāram	-3669
upasthi	-3670
upaviśh	-3671
valanti	-3672
vegāḥta	-3673
vibhāga	-3674
vihitaṁ	-3675
vijñāna	-3676
vimūḍhā	-3677
virūḍha	-3678
vyavasā	-3679
vādānśh	-3680
yajñena	-3681
yātmikā	-3682
śhanaiḥ	-3683
śharīra	-3684
śhrayed	-3685
śhubhān	-3686
śhubhāt	-3687
śhuśhru	-3688
śhvaraḥ	-3689
śhyante	-3690
śhāsitā	-3691
ṇauyate	-3692
ṇaśhcha	-3693
ṇātītaḥ	-3694
ṣhyeṣhu	-3695
ṣhyāṇāṁ	-3696
ṣhṭhāya	-3697
▁akṛita	-3698
▁amalān	-3699
▁ananya	-3700
▁antaśh	-3701
▁anyena	-3702
▁arpita	-3703
▁astīti	-3704
▁asyeha	-3705
▁aśhnan	-3706
▁bahavo	-3707
▁bhartā	-3708
▁bhasma	-3709
▁bhavet	-3710
▁bhogān	-3711
▁bhogāḥ	-3712
▁chakar	-3713
▁chakiṁ	-3714
▁chirāt	-3715
▁chādir	-3716
▁chāpya	-3717
▁chāyaṁ	-3718
▁chūrṇi	-3719
▁devalo	-3720
▁dhṛiti	-3721
▁divyān	-3722
▁dravya	-3723
▁droṇaḥ	-3724
▁droṇaṁ	-3725
▁duḥkhā	-3726
▁duṣhpū	-3727
▁dānena	-3728
▁dīyate	-3729
▁evāyaṁ	-3730
▁ghnato	-3731
▁ghoraṁ	-3732
▁guhyam	-3733
▁guṇair	-3734
▁hantum	-3735
▁hanyus	-3736
▁hyenaṁ	-3737
▁jñeyam	-3738
▁karuṇa	-3739
▁kavayo	-3740
▁kratur	-3741
▁krodha	-3742
▁krūrān	-3743
▁kāmāns	-3744
▁kāryam	-3745
▁kṛitaṁ	-3746
▁mattaḥ	-3747
▁naivaṁ	-3748
▁nityam	-3749
▁nānyad	-3750
▁nāsikā	-3751
▁nāstya	-3752
▁oṁkāra	-3753
▁parata	-3754
▁parayā	-3755
▁paśhyā	-3756
▁prabho	-3757
▁prabhā	-3758
▁prahṛi	-3759
▁prasan	-3760
▁pratya	-3761
▁praśhā	-3762
▁pretya	-3763
▁prāṇaṁ	-3764
▁prāṇān	-3765
▁prītiḥ	-3766
▁purāṇī	-3767
▁putrās	-3768
▁ramate	-3769
▁rathaṁ	-3770
▁samatā	-3771
▁samave	-3772
▁samyag	-3773
▁sarvaḥ	-3774
▁satata	-3775
▁sattve	-3776
▁saumya	-3777
▁smaran	-3778
▁sthira	-3779
▁sthirā	-3780
▁sthita	-3781
▁sthito	-3782
▁svayaṁ	-3783
▁tamasi	-3784
▁tamaśh	-3785
▁tapasi	-3786
▁tapasā	-3787
▁tapaśh	-3788
▁taptaṁ	-3789
▁tasmin	-3790
▁tavāmī	-3791
▁teṣhām	-3792
▁tulyas	-3793
▁tvātma	-3794
▁tyakta	-3795
▁tyāgaṁ	-3796
▁tāmasa	-3797
▁tāmasā	-3798
▁upetya	-3799
▁vaktum	-3800
▁vaśhāt	-3801
▁vedair	-3802
▁vettha	-3803
▁vidyām	-3804
▁vijānī	-3805
▁viṣham	-3806
▁viṣhṇo	-3807
▁vyakta	-3808
▁vyatha	-3809
▁vyāpya	-3810
▁vāchaṁ	-3811
▁vākyam	-3812
▁yakṣha	-3813
▁yoddha	-3814
▁yoddhu	-3815
▁yogins	-3816
▁yādava	-3817
▁āditya	-3818
▁āgatāḥ	-3819
▁āpannā	-3820
▁āsuraṁ	-3821
▁śhakya	-3822
▁śhaśhi	-3823
▁śhruti	-3824
ananyena	-3825
anuṣhṭhi	-3826
arthīyaṁ	-3827
bharaṇaṁ	-3828
bhraṣhṭo	-3829
bhumāhus	-3830
bhyāsena	-3831
chchhāmi	-3832
chhabdaḥ	-3833
gandhānu	-3834
hyaiḥvak	-3835
hāaśhvat	-3836
iśhwarya	-3837
kairmayā	-3838
karmāṇaṁ	-3839
kṣhapita	-3840
kṣhaṁtat	-3841
kṣhyāmya	-3842
manobhir	-3843
mātmānaḥ	-3844
nakānike	-3845
ndhruvam	-3846
neṣhueko	-3847
nindātma	-3848
nirvāṇam	-3849
nirvāṇaṁ	-3850
ntareṣhu	-3851
pajāyate	-3852
paśhyaty	-3853
prabhava	-3854
prasādāt	-3855
prekṣhya	-3856
puruṣhaṁ	-3857
riṣhyasi	-3858
rājyasya	-3859
sammūḍho	-3860
sandhāya	-3861
sanniyam	-3862
sannyāsī	-3863
sansthaṁ	-3864
sarvasya	-3865
sarvathā	-3866
sarvatra	-3867
saṅghaiḥ	-3868
saṅgiṣhu	-3869
saṅkalpa	-3870
sikathaṁ	-3871
sivihāra	-3872
tayāātma	-3873
taḥtulya	-3874
ttiṣhṭha	-3875
tātmaiva	-3876
tātmanaḥ	-3877
tāñjalir	-3878
vartanti	-3879
vasthita	-3880
vasthitā	-3881
yajñānāṁ	-3882
yamāṇāni	-3883
yasyāsya	-3884
yiṣhyāmi	-3885
yānvitāḥ	-3886
yātmanaḥ	-3887
śhañjigh	-3888
śhchaiva	-3889
śhreṇeva	-3890
ṇaḥnāhaṁ	-3891
ṣhajjate	-3892
▁abhivij	-3893
▁achalaṁ	-3894
▁achyuta	-3895
▁adhamāṁ	-3896
▁ajasram	-3897
▁akṣharā	-3898
▁anantaṁ	-3899
▁antaraṁ	-3900
▁aprāpya	-3901
▁asaktaḥ	-3902
▁avaśhaṁ	-3903
▁avyakto	-3904
▁avyayaḥ	-3905
▁bahudhā	-3906
▁bandhur	-3907
▁bhajate	-3908
▁bhaktaḥ	-3909
▁bhaktās	-3910
▁bhavato	-3911
▁bhogair	-3912
▁bhruvoḥ	-3913
▁bhuṅkte	-3914
▁bhīṣhma	-3915
▁buddheḥ	-3916
▁buddhvā	-3917
▁charati	-3918
▁chetanā	-3919
▁chintyo	-3920
▁chittaṁ	-3921
▁chādyaṁ	-3922
▁chānava	-3923
▁dadhmau	-3924
▁dadhāmy	-3925
▁daśhanā	-3926
▁dhanāni	-3927
▁dharmam	-3928
▁dhūmenā	-3929
▁duṣhkṛi	-3930
▁dvandva	-3931
▁dṛiḍham	-3932
▁evetaro	-3933
▁evājyam	-3934
▁gadinaṁ	-3935
▁garbhaṁ	-3936
▁govinda	-3937
▁hanyate	-3938
▁hetavaḥ	-3939
▁indriya	-3940
▁ivāmbha	-3941
▁janaḥsa	-3942
▁jñānena	-3943
▁jñānino	-3944
▁karmaṇy	-3945
▁kriyate	-3946
▁kāleṣhu	-3947
▁kāraṇam	-3948
▁kāṅkṣhe	-3949
▁kṣhatri	-3950
▁labdhvā	-3951
▁lokasya	-3952
▁maitraḥ	-3953
▁manyeta	-3954
▁mitrāri	-3955
▁muhyati	-3956
▁mādhava	-3957
▁māmikām	-3958
▁mānavaḥ	-3959
▁nadīnāṁ	-3960
▁nibodha	-3961
▁nihatya	-3962
▁nivarti	-3963
▁nānuśho	-3964
▁nāpnoti	-3965
▁nāradas	-3966
▁paricha	-3967
▁pataṅgā	-3968
▁pautrāḥ	-3969
▁pitaraḥ	-3970
▁prabhuḥ	-3971
▁prakṛit	-3972
▁prayāti	-3973
▁proktaḥ	-3974
▁prāṇāṁs	-3975
▁purāṇam	-3976
▁pātakam	-3977
▁pāvakaḥ	-3978
▁ruddhvā	-3979
▁rājasāḥ	-3980
▁rājyena	-3981
▁rūpasya	-3982
▁samantā	-3983
▁samband	-3984
▁sanyāti	-3985
▁sarvāṇī	-3986
▁sthitaṁ	-3987
▁sānkhya	-3988
▁tapasvi	-3989
▁tuṣhṭis	-3990
▁tyājyaṁ	-3991
▁uktaṁhe	-3992
▁uṣhitvā	-3993
▁vedeṣhu	-3994
▁veditum	-3995
▁viguṇaḥ	-3996
▁vijayaṁ	-3997
▁vilagnā	-3998
▁vimukto	-3999
▁vistara	-4000
▁vivasva	-4001
▁viṣhayā	-4002
▁viṣhīda	-4003
▁vākyena	-4004
▁yuñjann	-4005
▁yuñjyād	-4006
▁yāmimāṁ	-4007
▁yāsyasi	-4008
▁āpnuyām	-4009
▁ārjavam	-4010
▁āsthitā	-4011
▁āviśhya	-4012
▁śhanair	-4013
▁śhatrau	-4014
▁śhaśhāṅ	-4015
▁śhreyaḥ	-4016
▁śhuchaḥ	-4017
▁śhyālāḥ	-4018
▁ūrdhvaṁ	-4019
bhayameva	-4020
bhyantara	-4021
bhṛittado	-4022
bāndhavān	-4023
chetasāma	-4024
chittātmā	-4025
darśhinaḥ	-4026
dhamdivya	-4027
duḥkhānāṁ	-4028
harṣhayaḥ	-4029
ivendriya	-4030
pakṣhayoḥ	-4031
prabhavān	-4032
prakāśhaṁ	-4033
praśhaste	-4034
rthebhyas	-4035
sambhūtaṁ	-4036
samudyame	-4037
sannyasta	-4038
sansiddha	-4039
sanyuktāḥ	-4040
sanśhayaḥ	-4041
sanśhayaṁ	-4042
smadīyair	-4043
tatraivaṁ	-4044
tendriyaḥ	-4045
tātmabhiḥ	-4046
yāvadetān	-4047
śhastreṇa	-4048
śhreṣhṭha	-4049
▁adharmaṁ	-4050
▁adveṣhṭā	-4051
▁adṛiṣhṭa	-4052
▁ajānanto	-4053
▁asmābhiḥ	-4054
▁aśhubhān	-4055
▁aśhāstra	-4056
▁bhārataa	-4057
▁bhāveṣhu	-4058
▁brahmaṇi	-4059
▁bravīṣhi	-4060
▁brāhmaṇa	-4061
▁bāhyānśh	-4062
▁chakṣhuḥ	-4063
▁chejyayā	-4064
▁chhittvā	-4065
▁darśhana	-4066
▁dhātāram	-4067
▁durlabha	-4068
▁durmatiḥ	-4069
▁dṛiḍhena	-4070
▁gṛihṇann	-4071
▁jvalanaṁ	-4072
▁jñānavān	-4073
▁jīvitena	-4074
▁kalpādau	-4075
▁karmaṇas	-4076
▁karmaṇaḥ	-4077
▁karomīti	-4078
▁kaśhchin	-4079
▁kurvanti	-4080
▁kṣhāmaye	-4081
▁mahātman	-4082
▁mamadevā	-4083
▁mūrtayaḥ	-4084
▁nidhānam	-4085
▁nirāśhīr	-4086
▁nirīkṣhe	-4087
▁parastāt	-4088
▁pavitraṁ	-4089
▁pralīnas	-4090
▁pramādāt	-4091
▁prapadye	-4092
▁prasṛitā	-4093
▁praṇamya	-4094
▁prāṇeṣhu	-4095
▁puruṣham	-4096
▁pūruṣhaḥ	-4097
▁rājarṣha	-4098
▁samyaksa	-4099
▁samāsena	-4100
▁samāḥśhu	-4101
▁sarvataḥ	-4102
▁saṁvādam	-4103
▁saṅkalpa	-4104
▁siddhaye	-4105
▁sparśhān	-4106
▁sthāpaya	-4107
▁sukhinaḥ	-4108
▁sāttvika	-4109
▁sāttvikā	-4110
▁sāttvikī	-4111
▁tapyante	-4112
▁unmiṣhan	-4113
▁uparamed	-4114
▁utsṛijya	-4115
▁uvāchakā	-4116
▁uvāchasu	-4117
▁vachanaṁ	-4118
▁vaktrāṇi	-4119
▁vaktrāṇy	-4120
▁vartmānu	-4121
▁vayamyad	-4122
▁vibhūtiṁ	-4123
▁visṛijan	-4124
▁vāpiyach	-4125
▁vāyeṣhām	-4126
▁yogeśhva	-4127
▁yoniṣhuā	-4128
▁yuddhāya	-4129
▁yujyasva	-4130
▁yāḥtāsāṁ	-4131
▁ācharati	-4132
▁āchāryāḥ	-4133
▁āsurīṣhv	-4134
▁āveśhita	-4135
▁āśhritaḥ	-4136
▁āśhritāḥ	-4137
▁īśhvaraḥ	-4138
▁śharīraṁ	-4139
▁śhochati	-4140
▁śhṛiṇvan	-4141
adhibhūtaṁ	-4142
adhiyajñaḥ	-4143
balānvitāḥ	-4144
buddhitvān	-4145
chakṣhuṣhā	-4146
dhammantro	-4147
durdarśham	-4148
hāḥmātulāḥ	-4149
jyateyajñe	-4150
madānvitāḥ	-4151
mālyāmbara	-4152
mṛitopamam	-4153
nirdvandvo	-4154
niśhchayān	-4155
priyāpriyo	-4156
prāṇāpānau	-4157
rātryāgame	-4158
tiṣhṭhanti	-4159
vitpaśhyañ	-4160
śhayyāsana	-4161
▁anusmared	-4162
▁arhasiyad	-4163
▁asammohaḥ	-4164
▁asammūḍho	-4165
▁aśhastraṁ	-4166
▁aśheṣheṇa	-4167
▁aṇīyānsam	-4168
▁bhāsayate	-4169
▁bhūyaḥtam	-4170
▁buddhimān	-4171
▁chaahinsā	-4172
▁chakṣhuśh	-4173
▁chintayet	-4174
▁chochyate	-4175
▁chāvahāsā	-4176
▁devarṣhir	-4177
▁dhyāyanta	-4178
▁dhārayann	-4179
▁dhārayate	-4180
▁divyāneko	-4181
▁dviṣhataḥ	-4182
▁guḍākeśha	-4183
▁guṇātītaḥ	-4184
▁hatvaitān	-4185
▁hṛiṣhyāmi	-4186
▁indriyāṇi	-4187
▁kadāchana	-4188
▁kalevaram	-4189
▁kenachita	-4190
▁kilbiṣham	-4191
▁kirīṭinaṁ	-4192
▁mahimānaṁ	-4193
▁manuṣhyāḥ	-4194
▁mayānagha	-4195
▁muchyante	-4196
▁nimiṣhann	-4197
▁nivṛittiṁ	-4198
▁nodvijate	-4199
▁paramātmā	-4200
▁parimārgi	-4201
▁pañchaite	-4202
▁paśhyanty	-4203
▁pradīptaṁ	-4204
▁prakṛitir	-4205
▁praṇayena	-4206
▁proktavān	-4207
▁prāpsyasi	-4208
▁prāṇāyāma	-4209
▁puṣhpitāṁ	-4210
▁sadṛiśhaṁ	-4211
▁samāchara	-4212
▁sannyasyā	-4213
▁santuṣhṭo	-4214
▁sanātanam	-4215
▁sanśhayaṁ	-4216
▁sarveṣhāṁ	-4217
▁siddhānāṁ	-4218
▁svadhāham	-4219
▁sāttvikam	-4220
▁tathopala	-4221
▁tathāetān	-4222
▁tiṣhṭhati	-4223
▁trailokya	-4224
▁tvaramāṇā	-4225
▁uttiṣhṭha	-4226
▁uvāchaity	-4227
▁uvāchakiṁ	-4228
▁vartamāno	-4229
▁viniyamya	-4230
▁viparītaṁ	-4231
▁visṛijāmi	-4232
▁viśhvasya	-4233
▁vyavasitā	-4234
▁vyavasthi	-4235
▁vādinaḥkā	-4236
▁vārṣhṇeya	-4237
▁yudhyasva	-4238
▁śhrīmatāṁ	-4239
ananyenaiva	-4240
anuṣhṭhitāt	-4241
bhyatenānto	-4242
buddhayaḥte	-4243
charācharam	-4244
kādayaḥloka	-4245
kāṅkṣhibhir	-4246
maheśhvaram	-4247
mukhyaiḥvak	-4248
mānkṣhipāmy	-4249
mūlamasaṅga	-4250
nāpamānayos	-4251
paśhyadbhir	-4252
pradāmkriyā	-4253
pravṛittāni	-4254
rūpamāditya	-4255
samudbhavam	-4256
samudbhavaḥ	-4257
sanpralapan	-4258
sanstutiḥmā	-4259
tmanātmānaṁ	-4260
vatiṣhṭhate	-4261
vatiṣhṭhati	-4262
viśhuddhaye	-4263
yinaḥtasmān	-4264
yupapadyate	-4265
▁adhidaivaṁ	-4266
▁anuvartate	-4267
▁anuśhāsitā	-4268
▁aprāpyaiva	-4269
▁chaivāntaḥ	-4270
▁chanirmamo	-4271
▁chūrṇitair	-4272
▁evaiṣhyasi	-4273
▁evāśhrayed	-4274
▁gachchhati	-4275
▁guhyatamaṁ	-4276
▁ityuchyate	-4277
▁janmanimām	-4278
▁karmaṇaiva	-4279
▁kāṅkṣhitaṁ	-4280
▁mahātmanaḥ	-4281
▁manīṣhiṇaḥ	-4282
▁mohayasīva	-4283
▁nibadhnāti	-4284
▁nivartanti	-4285
▁nivṛittāni	-4286
▁niyojayasi	-4287
▁niśhchitya	-4288
▁nāsikāgraṁ	-4289
▁pratiṣhṭhā	-4290
▁pravadanty	-4291
▁pravartate	-4292
▁pravṛiddhe	-4293
▁pravṛittiḥ	-4294
▁prayujyate	-4295
▁prārabhate	-4296
▁punaḥbhūta	-4297
▁pṛithivyāṁ	-4298
▁sadātmānaṁ	-4299
▁samantataḥ	-4300
▁sampaśhyan	-4301
▁samupasthi	-4302
▁sansiddhim	-4303
▁sansiddhiṁ	-4304
▁sansāreṣhu	-4305
▁sthiraḥsam	-4306
▁svapañśhva	-4307
▁tadochyate	-4308
▁tathāasito	-4309
▁tejasvinām	-4310
▁upāśhritya	-4311
▁upāśhritāḥ	-4312
▁uvāchaidaṁ	-4313
▁vibhumāhus	-4314
▁vinaśhyati	-4315
▁yoddhavyam	-4316
▁śhreṣhṭhas	-4317
▁śhvaśhurāḥ	-4318
▁śhāśhvatīḥ	-4319
▁ṛichchhati	-4320
bhirakṣhitam	-4321
chetasaḥkula	-4322
chittendriya	-4323
chāriṇauyate	-4324
hāaśhvattham	-4325
karṣhayantaḥ	-4326
lepanamsarvā	-4327
mīsantuṣhṭaḥ	-4328
nakānikechid	-4329
samakṣhaṁtat	-4330
tavyaṁyasmin	-4331
tyupadhāraya	-4332
valantiyathā	-4333
vigatechchhā	-4334
vyapāśhrayaḥ	-4335
vīrāviśhanti	-4336
śhañjighrann	-4337
▁abhidhīyate	-4338
▁anekādbhuta	-4339
▁anirdeśhyam	-4340
▁apratīkāram	-4341
▁chaivāntare	-4342
▁evābhimukhā	-4343
▁hṛiṣhīkeśha	-4344
▁hṛiṣhīkeśho	-4345
▁janāḥdambhā	-4346
▁jāyatetathā	-4347
▁kriyamāṇāni	-4348
▁kṣhemataraṁ	-4349
▁lobhopahata	-4350
▁lokāstavāpi	-4351
▁maharṣhayaḥ	-4352
▁maharṣhīṇāṁ	-4353
▁manuṣhyeṣhu	-4354
▁manuṣhyāṇāṁ	-4355
▁nibadhnanti	-4356
▁niyatāhārāḥ	-4357
▁nopalipyate	-4358
▁nābhijānāti	-4359
▁pramuchyate	-4360
▁praviśhanti	-4361
▁prāpnuvanti	-4362
▁putrāḥsarve	-4363
▁sahaivāvani	-4364
▁sambhavanti	-4365
▁sampratiṣhṭ	-4366
▁samuddhartā	-4367
▁sarvendriya	-4368
▁tavedaṁmayā	-4369
▁udyatāḥyadi	-4370
▁uttamāṅgaiḥ	-4371
▁vibhūtibhir	-4372
▁yaḥpaśhyaty	-4373
▁yaḥsarvasya	-4374
▁śhraddhāvān	-4375
avipaśhchitaḥ	-4376
bhijāyateatha	-4377
bhojaneṣhueko	-4378
dhārtarāṣhṭrā	-4379
divyābharaṇaṁ	-4380
gṛihītayāātma	-4381
kriyaḥupaviśh	-4382
kṣhetrajñayor	-4383
padyaterajasi	-4384
sandṛiśhyante	-4385
vegāḥsamudram	-4386
vegāḥtathaiva	-4387
vyāmiśhreṇeva	-4388
▁achetasaḥmāṁ	-4389
▁achintyañcha	-4390
▁chābhayameva	-4391
▁dhīmatāmetad	-4392
▁hutampitāham	-4393
▁hṛiṣhīkeśhaṁ	-4394
▁janārdanatat	-4395
▁juhvatisarve	-4396
▁māmikāmkalpa	-4397
▁namaskurumām	-4398
▁naraḥnyāyyaṁ	-4399
▁nigachchhati	-4400
▁parikīrtitaḥ	-4401
▁prakāśhayati	-4402
▁pravyathitaṁ	-4403
▁sambandhinas	-4404
▁tathāsausahā	-4405
▁tatraikāgraṁ	-4406
▁uvāchadṛiṣhṭ	-4407
▁yujyateyajñe	-4408
▁ātmanātmānaṁ	-4409
▁śhamaḥsukhaṁ	-4410
▁śhubhāśhubha	-4411
bhṛittadottama	-4412
chalenabhaktyā	-4413
chintayankeṣhu	-4414
darśhanamaneka	-4415
kāñchanaḥtulya	-4416
niśhchayaḥmayy	-4417
parāyaṇāḥapare	-4418
sāgarātbhavāmi	-4419
yaśhaḥbhavanti	-4420
▁ahamsambhavaḥ	-4421
▁bhogaiśhwarya	-4422
▁chaivabhruvor	-4423
▁chhittvātataḥ	-4424
▁dravantitathā	-4425
▁durlabhataraṁ	-4426
▁evābhidhīyate	-4427
▁niyatātmabhiḥ	-4428
▁nāsābhyantara	-4429
▁parichakṣhate	-4430
▁prapadyeyataḥ	-4431
▁pātakamkathaṁ	-4432
▁upāsateteṣhām	-4433
▁uvāchajyāyasī	-4434
▁uvāchasenayor	-4435
▁visṛijāmyaham	-4436
▁yoniṣhuāsurīṁ	-4437
chyutayāvadetān	-4438
kāṅkṣhiṇaḥnāhaṁ	-4439
manasaivendriya	-4440
saṅghaiḥbhīṣhmo	-4441
vivarjitaḥtulya	-4442
▁achalandhruvam	-4443
▁bhavānpuruṣhaṁ	-4444
▁chejyayāśhakya	-4445
▁chochyatekarma	-4446
▁chānavalokayan	-4447
▁chāvahāsārtham	-4448
▁janārdanapāpam	-4449
▁madhusūdanaapi	-4450
▁nivartitumkula	-4451
▁prapaśhyadbhir	-4452
▁sakhetiajānatā	-4453
▁sampravṛittāni	-4454
▁samāḥśhuchīnāṁ	-4455
▁vichālyateguṇā	-4456
dyatāyudhamdivya	-4457
mukhyaiḥvaktrāṇi	-4458
paraḥananyenaiva	-4459
phalākāṅkṣhibhir	-4460
sanniyamyendriya	-4461
vibhūtayaḥyābhir	-4462
viśhuddhayesamaṁ	-4463
▁arhasyaśheṣheṇa	-4464
▁auṣhadhammantro	-4465
▁aśhnangachchhan	-4466
▁daśhanāntareṣhu	-4467
▁janakādayaḥloka	-4468
▁parastātprayāṇa	-4469
▁pataṅgāviśhanti	-4470
▁pitāmahaḥvedyaṁ	-4471
▁tiṣhṭhasikathaṁ	-4472
▁uvāchaprakāśhaṁ	-4473
am	-4474
an	-4475
iś	-4476
ju	-4477
kt	-4478
nū	-4479
sk	-4480
th	-4481
tt	-4482
wā	-4483
yī	-4484
yū	-4485
ār	-4486
īḍ	-4487
ṁs	-4488
ṭv	-4489
▁ū	-4490
ayā	-4491
dhe	-4492
dma	-4493
ekā	-4494
gad	-4495
gat	-4496
gaṁ	-4497
gur	-4498
gya	-4499
ato	-4500
dim	-4501
end	-4502
hat	-4503
hau	-4504
hāṁ	-4505
iḥa	-4506
jha	-4507
jva	-4508
jyo	-4509
kli	-4510
lād	-4511
mir	-4512
mpa	-4513
mye	-4514
māv	-4515
nai	-4516
nsa	-4517
nāl	-4518
nāp	-4519
nśh	-4520
paj	-4521
pla	-4522
pta	-4523
rdh	-4524
riḥ	-4525
rka	-4526
rma	-4527
rpa	-4528
ryā	-4529
sañ	-4530
sna	-4531
sās	-4532
tan	-4533
teḥ	-4534
thī	-4535
tis	-4536
tīṁ	-4537
uva	-4538
uṇḍ	-4539
vaj	-4540
vau	-4541
vin	-4542
viḥ	-4543
viṇ	-4544
wva	-4545
yar	-4546
yau	-4547
yār	-4548
yās	-4549
yāv	-4550
āhā	-4551
āpo	-4552
ārā	-4553
āśh	-4554
īna	-4555
ḥvi	-4556
ṁha	-4557
ṇyo	-4558
ṇās	-4559
ṣhm	-4560
▁bi	-4561
▁dī	-4562
▁gī	-4563
▁hā	-4564
▁kī	-4565
▁le	-4566
▁tī	-4567
▁īḍ	-4568
acha	-4569
arpa	-4570
bhik	-4571
bhur	-4572
chan	-4573
chas	-4574
chau	-4575
chaṁ	-4576
dadh	-4577
danā	-4578
devo	-4579
dhat	-4580
dhau	-4581
dhyo	-4582
eṣha	-4583
gaṇā	-4584
gdha	-4585
ghra	-4586
grāḥ	-4587
gyam	-4588
hanā	-4589
hate	-4590
hati	-4591
haśh	-4592
huna	-4593
hānā	-4594
hāta	-4595
hāti	-4596
hāyā	-4597
idhā	-4598
iṣha	-4599
nig	-4600
nāt	-4601
ptā	-4602
ryo	-4603
syo	-4604
tād	-4605
vyo	-4606
yot	-4607
ñjī	-4608
ḥni	-4609
▁tā	-4610
bhāk	-4611
chho	-4612
jati	-4613
jaśh	-4614
jeta	-4615
jāne	-4616
kali	-4617
ketā	-4618
kham	-4619
ktas	-4620
ktva	-4621
ktvo	-4622
kāmo	-4623
laib	-4624
lava	-4625
layo	-4626
lpam	-4627
lpaṁ	-4628
lāro	-4629
lāyā	-4630
mato	-4631
matī	-4632
mayo	-4633
mety	-4634
mevā	-4635
miha	-4636
minā	-4637
māla	-4638
māyā	-4639
māñl	-4640
nala	-4641
nara	-4642
nate	-4643
niha	-4644
nimi	-4645
niva	-4646
nyaṁ	-4647
nyād	-4648
nāka	-4649
nāna	-4650
nānā	-4651
nāva	-4652
nśha	-4653
oyaṁ	-4654
pakā	-4655
panā	-4656
pata	-4657
payā	-4658
pāte	-4659
pāyi	-4660
pāśh	-4661
rani	-4662
rasa	-4663
raśh	-4664
rena	-4665
riṇe	-4666
riṇā	-4667
rtya	-4668
rīti	-4669
sana	-4670
sato	-4671
smṛi	-4672
sāma	-4673
tada	-4674
taḥb	-4675
taḥu	-4676
tenā	-4677
tesa	-4678
teti	-4679
teśh	-4680
thag	-4681
tinā	-4682
titi	-4683
triṁ	-4684
tvad	-4685
tyat	-4686
tāns	-4687
tāpa	-4688
tīty	-4689
urur	-4690
urva	-4691
uṣhu	-4692
vari	-4693
vata	-4694
vaśh	-4695
vedo	-4696
vedā	-4697
veha	-4698
vina	-4699
gaḥ	-4700
hrā	-4701
āga	-4702
▁sw	-4703
chhā	-4704
eśha	-4705
hyam	-4706
kata	-4707
piṇḍ	-4708
rāma	-4709
rāsa	-4710
vena	-4711
vira	-4712
vyaḥ	-4713
vāka	-4714
vānī	-4715
vātī	-4716
vāṇa	-4717
vīta	-4718
wijo	-4719
yasa	-4720
yasy	-4721
yatā	-4722
yave	-4723
yenā	-4724
yeti	-4725
yona	-4726
yoni	-4727
yonī	-4728
yoya	-4729
yuga	-4730
yāji	-4731
yāyo	-4732
śhve	-4733
śhās	-4734
ṇaśh	-4735
ṇyaṁ	-4736
ṇāpi	-4737
ṇāti	-4738
ṛite	-4739
ṣhma	-4740
ṣhor	-4741
ṣhur	-4742
ṣhyo	-4743
ṣhṭe	-4744
▁adh	-4745
▁ani	-4746
▁apo	-4747
▁ata	-4748
▁avā	-4749
▁aya	-4750
▁glā	-4751
▁idā	-4752
▁kaṁ	-4753
▁kva	-4754
▁kūr	-4755
▁mer	-4756
▁pīḍ	-4757
▁sai	-4758
▁saj	-4759
▁ska	-4760
▁sro	-4761
▁suh	-4762
▁sur	-4763
▁teā	-4764
▁ura	-4765
▁vaḥ	-4766
▁vim	-4767
▁vāṅ	-4768
▁āhā	-4769
▁ākā	-4770
▁āsā	-4771
arthe	-4772
bhoga	-4773
bhoge	-4774
bhṛin	-4775
chhit	-4776
chhra	-4777
chyaṁ	-4778
chyān	-4779
dataḥ	-4780
ddher	-4781
devaṁ	-4782
deśho	-4783
dhanā	-4784
dhiko	-4785
dhikā	-4786
doṣho	-4787
droṇa	-4788
durgā	-4789
etach	-4790
gadaṁ	-4791
garaḥ	-4792
gaṇān	-4793
greṇa	-4794
guṇyo	-4795
gāṇām	-4796
havaḥ	-4797
itena	-4798
iśhya	-4799
ved	-4800
ṭho	-4801
dara	-4802
daya	-4803
mada	-4804
pada	-4805
taiḥ	-4806
tigu	-4807
vato	-4808
yāṇa	-4809
▁ada	-4810
▁dhe	-4811
▁etā	-4812
▁trā	-4813
▁uda	-4814
▁udd	-4815
▁vis	-4816
▁śhī	-4817
▁ṛit	-4818
anādi	-4819
gānāṁ	-4820
iḥbhu	-4821
iṣhṭo	-4822
jagat	-4823
jñāne	-4824
jñātā	-4825
jānaṁ	-4826
kampi	-4827
karmi	-4828
keśha	-4829
kāmāḥ	-4830
kṣhaḥ	-4831
kṣhṇa	-4832
lasaḥ	-4833
lābha	-4834
lākāṅ	-4835
masya	-4836
matuḥ	-4837
medam	-4838
mukha	-4839
myayā	-4840
nahaṁ	-4841
namṛi	-4842
nayan	-4843
nedaṁ	-4844
nehas	-4845
ntike	-4846
nyāni	-4847
nāham	-4848
odaka	-4849
pauṇḍ	-4850
phale	-4851
pradi	-4852
prame	-4853
prati	-4854
praśh	-4855
proch	-4856
ptāsa	-4857
pādaṁ	-4858
pāpmā	-4859
pāśha	-4860
ramta	-4861
ranty	-4862
rchya	-4863
ritaṁ	-4864
rāhmī	-4865
rātra	-4866
rīṇāṁ	-4867
rīṣhu	-4868
sande	-4869
sasya	-4870
sasye	-4871
saṁvi	-4872
saṅgā	-4873
saṅya	-4874
siddh	-4875
stīty	-4876
sukiḥ	-4877
syāpi	-4878
sāvṛi	-4879
sūkṣh	-4880
tauta	-4881
tavān	-4882
taḥka	-4883
taḥyo	-4884
teṣhv	-4885
thitā	-4886
thāmā	-4887
ttejo	-4888
tulān	-4889
tyāgo	-4890
tyāpo	-4891
tānte	-4892
tāśha	-4893
urūpā	-4894
vaiva	-4895
vanto	-4896
vanāl	-4897
varṇā	-4898
vasam	-4899
dri	-4900
sty	-4901
ulo	-4902
▁ri	-4903
bhar	-4904
guru	-4905
kārā	-4906
prep	-4907
pāke	-4908
tiko	-4909
vair	-4910
vibh	-4911
yeṇa	-4912
ṣhṭy	-4913
▁ave	-4914
▁āra	-4915
bhaye	-4916
danti	-4917
dbhiḥ	-4918
grāhe	-4919
hitān	-4920
karaṁ	-4921
ninda	-4922
vatta	-4923
vidaḥ	-4924
viśha	-4925
viṣha	-4926
vrate	-4927
vāhaṁ	-4928
vāṇāṁ	-4929
yamyā	-4930
yanda	-4931
yantu	-4932
yatho	-4933
yaḥst	-4934
yedaṁ	-4935
yeṣha	-4936
yāmaṁ	-4937
yāsya	-4938
āvṛit	-4939
īrgha	-4940
īrṣho	-4941
śhale	-4942
śhano	-4943
śhate	-4944
śhaya	-4945
śhumā	-4946
śhuni	-4947
ṇamvi	-4948
ṇanti	-4949
ṇaṁsa	-4950
ṣhase	-4951
ṣhata	-4952
ṣhati	-4953
ṣhave	-4954
ṣheta	-4955
ṣhito	-4956
ṣhyam	-4957
ṣhāma	-4958
ṣhṭim	-4959
▁ajñā	-4960
▁ante	-4961
▁apar	-4962
▁atyā	-4963
▁bhai	-4964
▁bhūr	-4965
▁bhṛi	-4966
▁brah	-4967
▁chak	-4968
▁cham	-4969
▁chād	-4970
▁dhyā	-4971
▁dura	-4972
▁dyāv	-4973
▁dāna	-4974
▁ekaḥ	-4975
▁enam	-4976
▁ghrā	-4977
▁hita	-4978
▁jahā	-4979
▁jaya	-4980
▁jāne	-4981
▁kand	-4982
▁kālā	-4983
▁kṣhī	-4984
▁miśh	-4985
▁moho	-4986
▁māyā	-4987
▁namo	-4988
▁naro	-4989
▁nāma	-4990
▁pava	-4991
▁paṇa	-4992
▁prah	-4993
▁puro	-4994
▁pāru	-4995
▁pūjā	-4996
▁rāgā	-4997
▁sara	-4998
▁soma	-4999
ryu	-5000
daur	-5001
irām	-5002
jñaṁ	-5003
lati	-5004
lyaṁ	-5005
ropa	-5006
ttaḥ	-5007
tāny	-5008
ṇyan	-5009
ṇāmi	-5010
▁aty	-5011
▁jan	-5012
▁āva	-5013
gataḥ	-5014
gomuk	-5015
hitaḥ	-5016
jñāni	-5017
jñāya	-5018
mantā	-5019
ntāsi	-5020
panne	-5021
patiḥ	-5022
patrā	-5023
rataṁ	-5024
sataḥ	-5025
sānkh	-5026
vijñā	-5027
wajaḥ	-5028
ṣhyet	-5029
▁dama	-5030
▁svap	-5031
▁sāmā	-5032
▁sṛit	-5033
▁tada	-5034
▁tavo	-5035
▁tumu	-5036
▁tāny	-5037
▁ubhe	-5038
▁ubhā	-5039
▁upai	-5040
▁vahā	-5041
▁vara	-5042
▁viga	-5043
▁vivi	-5044
▁vāso	-5045
▁vāsā	-5046
▁yati	-5047
▁yaḥa	-5048
▁āpaḥ	-5049
▁śhas	-5050
▁śhaṅ	-5051
▁śhve	-5052
▁ṛitū	-5053
ajñāne	-5054
akarma	-5055
anudvi	-5056
bahūni	-5057
balyaṁ	-5058
bhavat	-5059
bhavāt	-5060
bhedaṁ	-5061
bhichā	-5062
bhrāma	-5063
bhāsaṁ	-5064
bhītaḥ	-5065
bhūtam	-5066
bhūyaḥ	-5067
chchhe	-5068
chchhi	-5069
chikīr	-5070
chāraḥ	-5071
danair	-5072
darśho	-5073
ddhayo	-5074
devatā	-5075
dhaiva	-5076
dhanaṁ	-5077
dharaḥ	-5078
dhasām	-5079
dhikaṁ	-5080
dhipam	-5081
diṣhṭa	-5082
dyamya	-5083
dyādya	-5084
dāḥāga	-5085
enayor	-5086
ghāśhā	-5087
hantaṁ	-5088
hanyām	-5089
harate	-5090
hoktaṁ	-5091
hoktvā	-5092
ivabhu	-5093
ivarta	-5094
jahāti	-5095
janyād	-5096
jhaṣhā	-5097
jvaraḥ	-5098
katvam	-5099
grān	-5100
kach	-5101
kama	-5102
kaśh	-5103
madh	-5104
ndaḥ	-5105
toda	-5106
vīra	-5107
yakā	-5108
▁ito	-5109
daraḥ	-5110
dasām	-5111
dhyaṁ	-5112
hanaṁ	-5113
layam	-5114
mohaṁ	-5115
myate	-5116
nāḥra	-5117
pāḥna	-5118
rutaḥ	-5119
ryate	-5120
sukho	-5121
traye	-5122
uryaṁ	-5123
yanti	-5124
yatte	-5125
yeṣhu	-5126
yānti	-5127
▁akīr	-5128
▁amṛi	-5129
▁hare	-5130
▁jātā	-5131
▁kālo	-5132
▁śhri	-5133
chanti	-5134
kāntam	-5135
kāraṇa	-5136
kīrtir	-5137
kīrtiḥ	-5138
kṛitaḥ	-5139
kṣhīṇe	-5140
lekṣha	-5141
lutoda	-5142
lābhau	-5143
mantaṁ	-5144
maraṇa	-5145
maswar	-5146
mayyar	-5147
mithya	-5148
myatee	-5149
myekam	-5150
māpāyi	-5151
mṛiṣhī	-5152
nalena	-5153
nanāna	-5154
navāni	-5155
nityaḥ	-5156
nityās	-5157
ntasta	-5158
ntavaḥ	-5159
ntikaṁ	-5160
nyanta	-5161
nāśhas	-5162
nīśhva	-5163
pradig	-5164
priyaḥ	-5165
priyāḥ	-5166
prādhā	-5167
pyanya	-5168
pātena	-5169
pūrvam	-5170
pūrvaṁ	-5171
rakṣha	-5172
rjitam	-5173
ruddho	-5174
rāṇāma	-5175
saktaṁ	-5176
sargaḥ	-5177
sañcha	-5178
saṅgāt	-5179
sthira	-5180
svakaṁ	-5181
svapna	-5182
syakṛi	-5183
syatha	-5184
sādaye	-5185
tamnāp	-5186
tapask	-5187
tapasā	-5188
tatsva	-5189
tiguṇe	-5190
titari	-5191
titata	-5192
tiśhru	-5193
tmakaṁ	-5194
tmaniī	-5195
trayaṁ	-5196
ttaram	-5197
tthena	-5198
tvāyog	-5199
idā	-5200
sād	-5201
sāj	-5202
vīr	-5203
dhān	-5204
dāsi	-5205
ivān	-5206
kṛin	-5207
rapi	-5208
rasā	-5209
sito	-5210
uruk	-5211
vapi	-5212
vyāt	-5213
yamī	-5214
ṣhṇā	-5215
▁adā	-5216
▁vaj	-5217
daiva	-5218
idānī	-5219
myena	-5220
nirdo	-5221
rūpaḥ	-5222
vataṁ	-5223
yinām	-5224
ṣhkṛi	-5225
▁khaṁ	-5226
▁prāk	-5227
▁sauk	-5228
hṛitya	-5229
idānīm	-5230
iḥevaṁ	-5231
jñātaṁ	-5232
nantaḥ	-5233
piteva	-5234
tamsuk	-5235
trayam	-5236
tyābhi	-5237
tāmmau	-5238
tāntar	-5239
tāḥmām	-5240
tāḥtaṁ	-5241
utsāha	-5242
vapare	-5243
vasvān	-5244
vaḥpṛi	-5245
vidmaḥ	-5246
vidvān	-5247
viṣhya	-5248
vānaro	-5249
vṛitta	-5250
yanair	-5251
yatate	-5252
yendri	-5253
yogino	-5254
yoktaṁ	-5255
yonīni	-5256
yutsṛi	-5257
yābhya	-5258
yāneva	-5259
yāntām	-5260
ārāmas	-5261
īkṣhya	-5262
īnamas	-5263
śhanam	-5264
śhanaṁ	-5265
śharaṁ	-5266
śhayāt	-5267
śhinaḥ	-5268
śhvach	-5269
śhālaṁ	-5270
ḥvisma	-5271
ṇyanye	-5272
ṣhyate	-5273
ṣhṭhās	-5274
ṣhṭāsu	-5275
▁adbhu	-5276
▁adhye	-5277
▁anena	-5278
▁anusa	-5279
▁arāga	-5280
▁asama	-5281
▁aṣhṭa	-5282
▁babhū	-5283
▁bhogā	-5284
▁bhīma	-5285
▁bodha	-5286
▁chada	-5287
▁charā	-5288
▁chhin	-5289
▁chopa	-5290
▁daiva	-5291
▁daśha	-5292
▁devaṁ	-5293
▁durbu	-5294
▁duryo	-5295
▁dwijo	-5296
▁dānam	-5297
▁ganta	-5298
▁gataḥ	-5299
ndo	-5300
ntu	-5301
aham	-5302
heṇa	-5303
jāla	-5304
jāpa	-5305
jāsā	-5306
kāro	-5307
ndro	-5308
romā	-5309
vyap	-5310
▁ajā	-5311
▁khe	-5312
bhina	-5313
bhito	-5314
deyur	-5315
dhaśh	-5316
dinām	-5317
gināṁ	-5318
jātaṁ	-5319
mūlam	-5320
nedam	-5321
pravā	-5322
praṇa	-5323
putre	-5324
sūtra	-5325
taśho	-5326
yātrā	-5327
▁band	-5328
▁ikṣh	-5329
▁same	-5330
adhaśh	-5331
bahavo	-5332
dhanam	-5333
duḥkhe	-5334
gendro	-5335
ghavam	-5336
grāmaḥ	-5337
muñcha	-5338
nyataḥ	-5339
pannam	-5340
pitāma	-5341
saṅgaḥ	-5342
tejasā	-5343
tyante	-5344
śhinaṁ	-5345
śhurān	-5346
ṛitpra	-5347
ṣhṭaśh	-5348
▁atiri	-5349
▁chāti	-5350
▁chāve	-5351
▁gatiḥ	-5352
▁girām	-5353
▁govin	-5354
▁hasti	-5355
▁hinas	-5356
▁hitam	-5357
▁hivyā	-5358
▁hutaṁ	-5359
▁jñāne	-5360
▁jñānā	-5361
▁karme	-5362
▁kaviḥ	-5363
▁klaib	-5364
▁kālaḥ	-5365
▁kāmāt	-5366
▁kūrmo	-5367
▁manta	-5368
▁manur	-5369
▁mataṁ	-5370
▁meruḥ	-5371
▁mohāt	-5372
▁muneḥ	-5373
▁muniḥ	-5374
▁mārga	-5375
▁māyām	-5376
▁mūlān	-5377
▁nabha	-5378
▁naite	-5379
▁nigṛi	-5380
▁nirgu	-5381
▁nāhan	-5382
▁nānya	-5383
▁nātra	-5384
▁pachā	-5385
▁pradu	-5386
▁praha	-5387
▁prahā	-5388
▁prakā	-5389
▁prana	-5390
▁prave	-5391
▁prīta	-5392
▁puṇyā	-5393
▁pūrve	-5394
▁rajaḥ	-5395
▁ratho	-5396
▁ripur	-5397
▁sanni	-5398
▁santa	-5399
ajo	-5400
draṁ	-5401
kalā	-5402
nalo	-5403
stva	-5404
▁kam	-5405
daraṁ	-5406
datte	-5407
ddhir	-5408
dānam	-5409
hanta	-5410
karāv	-5411
kasye	-5412
kuśho	-5413
kārya	-5414
mānśh	-5415
māraṁ	-5416
nanta	-5417
navya	-5418
saṅgi	-5419
tavya	-5420
tthaṁ	-5421
tvana	-5422
tvayā	-5423
vanta	-5424
▁achi	-5425
▁guru	-5426
▁jayā	-5427
▁kata	-5428
▁kāmā	-5429
▁muna	-5430
▁yema	-5431
bāhūru	-5432
gatenā	-5433
khilaṁ	-5434
kīrtyā	-5435
kṣhāsu	-5436
ntathā	-5437
parāṇi	-5438
ranyaḥ	-5439
viddhi	-5440
▁durme	-5441
▁ghāta	-5442
▁kasya	-5443
▁kārya	-5444
▁kāyaṁ	-5445
▁namaḥ	-5446
▁santo	-5447
▁sapat	-5448
▁sapta	-5449
▁sarge	-5450
▁savya	-5451
▁tanme	-5452
▁tanum	-5453
▁tataṁ	-5454
▁tvaya	-5455
▁tvayā	-5456
▁tyaja	-5457
▁tyāge	-5458
▁vicha	-5459
▁vidhā	-5460
▁vismi	-5461
▁vraja	-5462
▁vyāha	-5463
▁vyāsa	-5464
▁vādaḥ	-5465
▁vāyor	-5466
▁vṛiji	-5467
▁yamaḥ	-5468
▁yasye	-5469
▁yataḥ	-5470
▁yatha	-5471
▁yathe	-5472
▁yatsa	-5473
▁yogas	-5474
▁yokta	-5475
▁īśhaṁ	-5476
▁īḍyam	-5477
▁śhara	-5478
anityam	-5479
bhaktir	-5480
bhihitā	-5481
bhureva	-5482
bhāgama	-5483
bhūtāny	-5484
buddhiḥ	-5485
chchhet	-5486
chetaso	-5487
ddhaṁrā	-5488
dhukpra	-5489
dotthaṁ	-5490
drathaṁ	-5491
durgāṇi	-5492
eśhvaro	-5493
gaṇānśh	-5494
grāheṇā	-5495
harṣhaṁ	-5496
hekarma	-5497
hārasya	-5498
hārhasi	-5499
pno	-5500
amla	-5501
hetu	-5502
nidi	-5503
nunā	-5504
nuvi	-5505
panu	-5506
pāpa	-5507
pāpā	-5508
tamo	-5509
tuti	-5510
tvās	-5511
śhnu	-5512
ṅkṣh	-5513
▁puṁ	-5514
▁vah	-5515
lupta	-5516
nātmā	-5517
pādam	-5518
reyaḥ	-5519
saivā	-5520
tvāro	-5521
tvāya	-5522
vikam	-5523
vitam	-5524
yenam	-5525
▁arju	-5526
▁jahi	-5527
▁japa	-5528
▁nāpi	-5529
▁pāṇi	-5530
▁tamo	-5531
▁tapā	-5532
▁vasa	-5533
▁yatu	-5534
▁āhur	-5535
dyanta	-5536
hetunā	-5537
jñātvā	-5538
narake	-5539
nteyaḥ	-5540
pnoṣhi	-5541
pāpaiḥ	-5542
thānam	-5543
ṅkṣhva	-5544
▁avina	-5545
▁ekeha	-5546
▁gāyat	-5547
▁kāmaḥ	-5548
▁lupta	-5549
▁pathi	-5550
▁pūrṇā	-5551
▁sarpā	-5552
▁stuti	-5553
▁vṛiko	-5554
bhānidi	-5555
jānataḥ	-5556
jāpatis	-5557
jārthaṁ	-5558
karmasu	-5559
karmāṇy	-5560
kathayi	-5561
ketāvān	-5562
keśhavā	-5563
kāraṇaṁ	-5564
kīrṣhur	-5565
kṛitīni	-5566
kṣharaḥ	-5567
kṣhatri	-5568
kṣhaṇāḥ	-5569
lāyāsaṁ	-5570
mayaiva	-5571
mayyāsa	-5572
mnāntaṁ	-5573
mtasmād	-5574
mākaraḥ	-5575
mātmeti	-5576
naḥrasa	-5577
ndriyam	-5578
ndrāṇāṁ	-5579
ntatāni	-5580
ntyahar	-5581
nyāyenā	-5582
odhasāṁ	-5583
paramaṁ	-5584
paramāṁ	-5585
pareyam	-5586
paśhyat	-5587
prajñas	-5588
rajasas	-5589
rakṣhya	-5590
rambhān	-5591
samānaḥ	-5592
samāvṛi	-5593
sanniva	-5594
sanspar	-5595
sanyogā	-5596
saujīva	-5597
saṅghān	-5598
stabhyā	-5599
pāṇi	-5600
śhād	-5601
bhavo	-5602
bhram	-5603
bhāvā	-5604
bhūto	-5605
danaḥ	-5606
etair	-5607
etāsi	-5608
gatāḥ	-5609
kartā	-5610
ramna	-5611
tanaḥ	-5612
tyayā	-5613
ṇākar	-5614
▁abhā	-5615
▁ahar	-5616
▁atya	-5617
▁maṇi	-5618
▁māme	-5619
▁yats	-5620
▁ātya	-5621
▁āśhā	-5622
kṣheṇa	-5623
patyam	-5624
pratya	-5625
thitaḥ	-5626
valair	-5627
vikāri	-5628
ātmanā	-5629
▁bhuvi	-5630
▁damas	-5631
▁matāḥ	-5632
▁nānto	-5633
▁nātya	-5634
▁pūrvā	-5635
▁tatya	-5636
▁tiṣhṭ	-5637
▁vikar	-5638
dveṣhya	-5639
jānanti	-5640
kṣhayaḥ	-5641
kṣhaṇāt	-5642
ndritaḥ	-5643
ranśhād	-5644
sthasya	-5645
sthitaṁ	-5646
sānkhye	-5647
sīdanti	-5648
tadasya	-5649
tapasāṁ	-5650
tenaiva	-5651
tiṣhṭho	-5652
tramiha	-5653
tvārtha	-5654
tvāsyām	-5655
tāsarvā	-5656
tātmanā	-5657
vairiṇā	-5658
varāṇāṁ	-5659
vedeṣhu	-5660
vedānta	-5661
veśhaya	-5662
viprati	-5663
viyogaṁ	-5664
viṣhādī	-5665
vyaktāt	-5666
vyathaḥ	-5667
vādinām	-5668
vīryāmi	-5669
vṛittaḥ	-5670
yaibhyo	-5671
yajante	-5672
yajñair	-5673
yajñāyā	-5674
yajñāśh	-5675
yakartā	-5676
yamāṇam	-5677
yantete	-5678
yatanto	-5679
yatatām	-5680
yopetās	-5681
yoyadvā	-5682
yuktais	-5683
yārhasi	-5684
yāyatra	-5685
śhastra	-5686
śhoṣhya	-5687
śhuchiḥ	-5688
śhuddha	-5689
śhyanti	-5690
śhāśhva	-5691
ūrdhnyā	-5692
ṇastvam	-5693
ṣhipraṁ	-5694
ṣhyasya	-5695
▁ahaitu	-5696
▁ahampi	-5697
▁ananyā	-5698
▁anādiṁ	-5699
diṁ	-5700
uho	-5701
dhāa	-5702
dhād	-5703
dhāv	-5704
kīma	-5705
kṛid	-5706
māne	-5707
pāne	-5708
samo	-5709
▁āho	-5710
gānśh	-5711
mitrā	-5712
rāśhi	-5713
sināṁ	-5714
tmāno	-5715
vīnām	-5716
ṣhṭum	-5717
▁asṛi	-5718
▁juho	-5719
▁kima	-5720
▁vadi	-5721
▁vede	-5722
▁yāta	-5723
▁āyuḥ	-5724
bhūtvā	-5725
gamyaṁ	-5726
kṛitam	-5727
lavaṇā	-5728
noktāḥ	-5729
pārtha	-5730
rākṣha	-5731
rāśhiṁ	-5732
ttamāḥ	-5733
vaidhā	-5734
vaśhya	-5735
▁bahūn	-5736
▁bhūya	-5737
▁deham	-5738
▁matir	-5739
▁nāhaṁ	-5740
▁nāyaṁ	-5741
▁prāṇi	-5742
▁rudhi	-5743
▁viṣhā	-5744
deheṣhu	-5745
dhikata	-5746
dvaidhā	-5747
karmaṇā	-5748
kāyaiva	-5749
kṣhante	-5750
manasas	-5751
maśhcha	-5752
nyamāne	-5753
ṣhibhir	-5754
▁apradā	-5755
▁arhati	-5756
▁asaṅya	-5757
▁avaśho	-5758
▁avyaya	-5759
▁baddhā	-5760
▁bhaved	-5761
▁bhāṣhā	-5762
▁bhītam	-5763
▁bhūtaṁ	-5764
▁bhūtir	-5765
▁bibhar	-5766
▁budhaḥ	-5767
▁bṛihas	-5768
▁chakri	-5769
▁charam	-5770
▁chitra	-5771
▁chābhi	-5772
▁chākār	-5773
▁chāsya	-5774
▁chātur	-5775
▁dambhā	-5776
▁dhruvo	-5777
▁dhyāne	-5778
▁duḥkhe	-5779
▁dānair	-5780
▁etayor	-5781
▁etāvad	-5782
▁ghoṣho	-5783
▁glānir	-5784
▁himāla	-5785
▁hyetad	-5786
▁hṛidyā	-5787
▁ihaika	-5788
▁iṣhṭān	-5789
▁jitaḥa	-5790
▁jñānād	-5791
▁krodho	-5792
▁kṛitam	-5793
▁kṛiṣhi	-5794
▁kṣharo	-5795
▁labdhā	-5796
▁lobhas	-5797
▁mantra	-5798
▁muktaḥ	-5799
kim	-5800
kena	-5801
nyaj	-5802
ttān	-5803
yoru	-5804
ṇona	-5805
▁nyā	-5806
▁sāṅ	-5807
chchh	-5808
dhinā	-5809
jaṅga	-5810
parya	-5811
smayā	-5812
stami	-5813
tānya	-5814
vemaṁ	-5815
yaste	-5816
ṇānya	-5817
▁bhāḥ	-5818
▁gavi	-5819
▁hṛit	-5820
▁paro	-5821
madhye	-5822
nyasya	-5823
nyatra	-5824
nīchaṁ	-5825
parśha	-5826
ramate	-5827
rjunaḥ	-5828
sevate	-5829
smākaṁ	-5830
sthānī	-5831
śhvara	-5832
ṣhṭate	-5833
▁hitvā	-5834
▁hṛita	-5835
▁parya	-5836
▁rāmaḥ	-5837
▁tatrā	-5838
▁uchch	-5839
▁vinaṅ	-5840
ghātaśh	-5841
hastami	-5842
pṛithag	-5843
sahitaṁ	-5844
sanyama	-5845
saṅkhyā	-5846
syatvam	-5847
yaikena	-5848
▁bhrātr	-5849
▁chalam	-5850
▁daityā	-5851
▁dattān	-5852
▁jetāsi	-5853
▁mukhaṁ	-5854
▁muktvā	-5855
▁mūḍhāḥ	-5856
▁nakṣha	-5857
▁narake	-5858
▁navāni	-5859
▁nigṛih	-5860
▁nityaḥ	-5861
▁nyāsaṁ	-5862
▁nānyaṁ	-5863
▁pachan	-5864
▁paramo	-5865
▁parjan	-5866
▁pitaro	-5867
▁prahlā	-5868
▁pramuk	-5869
▁priyāḥ	-5870
▁prokto	-5871
▁proktā	-5872
▁prāhuḥ	-5873
▁saktam	-5874
▁saktāḥ	-5875
▁sambha	-5876
▁sampad	-5877
▁sanjñā	-5878
▁saṅgas	-5879
▁siddha	-5880
▁sopamā	-5881
▁sādhyā	-5882
▁sākṣhā	-5883
▁sākṣhī	-5884
▁tadvid	-5885
▁tathān	-5886
▁tenamo	-5887
▁teṣhva	-5888
▁tumulo	-5889
▁tvanyā	-5890
▁tūṣhṇī	-5891
▁udāhṛi	-5892
▁upadra	-5893
▁uśhanā	-5894
▁vadasi	-5895
▁vasavo	-5896
▁vayama	-5897
▁vedyaṁ	-5898
▁vibhuḥ	-5899
dvat	-5900
idaṁ	-5901
jñam	-5902
kaiḥ	-5903
ptir	-5904
rtṛi	-5905
rāmo	-5906
ttis	-5907
yaty	-5908
▁gām	-5909
▁itī	-5910
anyaḥ	-5911
chhan	-5912
devān	-5913
endra	-5914
hetur	-5915
itāni	-5916
jñaśh	-5917
ktāni	-5918
nādaṁ	-5919
radāḥ	-5920
saraḥ	-5921
vāpya	-5922
yatiḥ	-5923
yāyas	-5924
▁adho	-5925
▁chya	-5926
▁kāmo	-5927
▁samp	-5928
▁tvay	-5929
▁yamo	-5930
▁yoge	-5931
gāḥyad	-5932
hṛidaṁ	-5933
kṣhyas	-5934
vṛitti	-5935
yastha	-5936
śhākhā	-5937
ṣhayet	-5938
▁chhan	-5939
▁hatam	-5940
▁lobha	-5941
▁madam	-5942
▁mohaḥ	-5943
▁prāha	-5944
▁prāṇa	-5945
▁svena	-5946
▁sūrya	-5947
▁uddha	-5948
▁yauva	-5949
▁yāvat	-5950
▁śhamo	-5951
bhartṛi	-5952
gārtham	-5953
kāraṇāt	-5954
pūrvāṇi	-5955
sātmako	-5956
ḥnibadh	-5957
▁ajñaśh	-5958
▁bhayād	-5959
▁bṛihat	-5960
▁dakṣha	-5961
▁hyāśhu	-5962
▁itīyaṁ	-5963
▁prāñja	-5964
▁sampra	-5965
▁tvahaṁ	-5966
▁tvanta	-5967
▁vigato	-5968
▁vijayo	-5969
▁vimoha	-5970
▁vyathā	-5971
▁yasmān	-5972
▁yasmāt	-5973
▁yatati	-5974
▁yaḥhar	-5975
▁yogair	-5976
▁yogāya	-5977
▁yuddha	-5978
▁yudhya	-5979
▁yuktva	-5980
▁yuñjan	-5981
▁āsurīṁ	-5982
▁ātmani	-5983
▁śhamaṁ	-5984
▁śharma	-5985
▁śhaṭho	-5986
▁śhoṣha	-5987
▁śhādhi	-5988
▁śhānta	-5989
adbhutaṁ	-5990
agatāsūn	-5991
bhedataḥ	-5992
bhikrama	-5993
bhiḥkuru	-5994
bhogeṣhu	-5995
bhyasūta	-5996
bhāvitaḥ	-5997
charataḥ	-5998
chchhayā	-5999
rūn	-6000
dame	-6001
etat	-6002
gāch	-6003
kāme	-6004
▁aku	-6005
bhenā	-6006
guṇya	-6007
karme	-6008
maste	-6009
nāśhi	-6010
smāch	-6011
tasām	-6012
tānśh	-6013
uṣham	-6014
vahaḥ	-6015
śhino	-6016
▁itas	-6017
▁jita	-6018
▁kāme	-6019
▁name	-6020
▁niba	-6021
▁pūta	-6022
▁yete	-6023
bhakta	-6024
dīpite	-6025
rūkṣha	-6026
sthita	-6027
sthāne	-6028
taḥnir	-6029
yebhya	-6030
śhalaṁ	-6031
▁asthi	-6032
▁budhā	-6033
▁chāme	-6034
▁etena	-6035
▁gatiṁ	-6036
▁mahān	-6037
▁sukhe	-6038
▁vedyo	-6039
▁ādhat	-6040
▁ādiśh	-6041
prahara	-6042
pramāda	-6043
pramādā	-6044
pārtham	-6045
rahitam	-6046
ñchajan	-6047
ṣhṭasya	-6048
▁bhāsva	-6049
▁dūreṇa	-6050
▁mahānu	-6051
▁swayam	-6052
▁tejaśh	-6053
▁vidvān	-6054
▁yatato	-6055
ajñānenā	-6056
anāśhino	-6057
bandhāyā	-6058
dbhavaśh	-6059
dharmāvi	-6060
dhipāḥna	-6061
dhiṣhṭhā	-6062
dhāraṇām	-6063
dhāsyati	-6064
draṣhṭuṁ	-6065
drādityā	-6066
ekatvena	-6067
gadgadaṁ	-6068
hinaḥāhā	-6069
hopastha	-6070
ikāgreṇa	-6071
ivātmanā	-6072
iḥbhuñja	-6073
jijñāsur	-6074
joṣhayet	-6075
jñitamsa	-6076
jāsāttvi	-6077
kaiḥutsā	-6078
karmaṇya	-6079
kasyedaṁ	-6080
kāmebhyo	-6081
kṣhyanti	-6082
lokamaśh	-6083
māpāyino	-6084
mūḍhātmā	-6085
ntamidaṁ	-6086
ntastava	-6087
ntikasya	-6088
nubandhe	-6089
nātmanas	-6090
prabhāva	-6091
prakṛiti	-6092
prapannā	-6093
prasaktā	-6094
prasādān	-6095
prepsunā	-6096
puṣhṇāmi	-6097
ramabhyā	-6098
rathāḥye	-6099
nīti	-6100
nīva	-6101
wija	-6102
ūryo	-6103
bhujo	-6104
dhaiḥ	-6105
dwija	-6106
hyase	-6107
hītvā	-6108
kutas	-6109
kāmaḥ	-6110
punar	-6111
rānśh	-6112
tavyā	-6113
timal	-6114
trāna	-6115
utato	-6116
▁bhuñ	-6117
▁hato	-6118
▁jāti	-6119
▁mohi	-6120
▁svar	-6121
arthaṁ	-6122
dīpena	-6123
jñānāḥ	-6124
noktaṁ	-6125
nātaśh	-6126
pyasya	-6127
pyatra	-6128
tyātma	-6129
▁gamaḥ	-6130
▁kāmam	-6131
▁mumuk	-6132
▁mātrā	-6133
▁naiti	-6134
▁nāsaṁ	-6135
▁sañja	-6136
▁svayā	-6137
▁sūryo	-6138
▁vidyā	-6139
▁āptum	-6140
goptāsa	-6141
grāhyam	-6142
ivānśho	-6143
kṣhyasi	-6144
lihyase	-6145
nātmany	-6146
pabhoga	-6147
prepsur	-6148
rāsadam	-6149
traṁsva	-6150
vānīkaṁ	-6151
ṅgānīva	-6152
▁bhayāt	-6153
▁jānāti	-6154
▁kauśha	-6155
▁nṛiṣhu	-6156
▁svayam	-6157
dhyātmam	-6158
hītvāsad	-6159
kutastvā	-6160
kānśhena	-6161
nīndriyā	-6162
rjunajñā	-6163
rjunapra	-6164
rāhmaṇās	-6165
rākṣhasī	-6166
rāṇāmapi	-6167
rīkṣhyaṁ	-6168
saktātmā	-6169
sambhavā	-6170
sambhāvi	-6171
sammūḍha	-6172
sampanne	-6173
samādhāv	-6174
samāsena	-6175
sanjñake	-6176
saṅgamya	-6177
saṅghāvī	-6178
saṅyogaṁ	-6179
senayoru	-6180
siddhyed	-6181
siṣhyasi	-6182
sparśhās	-6183
spṛiśhaṁ	-6184
svastīty	-6185
syantaśh	-6186
sātmakaḥ	-6187
sūryayoḥ	-6188
tambhūta	-6189
tamparaṁ	-6190
tasyāhuḥ	-6191
taḥmūḍho	-6192
tiṣhṭhaṁ	-6193
tvaitāni	-6194
tyakarma	-6195
tyapunar	-6196
tyātmani	-6197
tānyahaṁ	-6198
tṛiptaśh	-6199
suṁ	-6200
ṇḍo	-6201
sīno	-6202
vāsu	-6203
▁tām	-6204
choda	-6205
mṛigā	-6206
nmarī	-6207
nmayā	-6208
riṇam	-6209
rāḥna	-6210
vimṛi	-6211
vṛito	-6212
yitvā	-6213
yānna	-6214
balāro	-6215
bhogān	-6216
bhṛich	-6217
dhyāya	-6218
hartum	-6219
mṛitaṁ	-6220
ntitat	-6221
pravṛi	-6222
pretān	-6223
saktāḥ	-6224
vyakto	-6225
vṛitaṁ	-6226
yāntaḥ	-6227
ṣhitaṁ	-6228
▁avikā	-6229
▁daṇḍo	-6230
▁diśho	-6231
▁enanā	-6232
▁ravir	-6233
▁raviḥ	-6234
▁sakto	-6235
▁ugraṁ	-6236
▁āsthā	-6237
bhyāsād	-6238
dārayat	-6239
vartaya	-6240
yuktena	-6241
śhokāma	-6242
▁akīrti	-6243
▁bhāvaṁ	-6244
▁evātra	-6245
▁naitat	-6246
▁yantrā	-6247
dharmāśh	-6248
enāvṛito	-6249
kliṣhṭaṁ	-6250
mṛigāṇāṁ	-6251
tātmanām	-6252
uṣhadhīḥ	-6253
uṣhusādh	-6254
varjitāḥ	-6255
vasthito	-6256
vichchha	-6257
vijñānam	-6258
vinirmuk	-6259
vittamāḥ	-6260
viśhatvi	-6261
vāṇijyaṁ	-6262
wādhyāya	-6263
yajñasya	-6264
yamāṇāya	-6265
yatānena	-6266
yoḥjñāna	-6267
yāmyātma	-6268
yātmānam	-6269
āvṛittiṁ	-6270
śhyaitad	-6271
śhārīraṁ	-6272
śhīlasya	-6273
ṇendriya	-6274
ṇyādhāya	-6275
ṇākartuṁ	-6276
ṣhṭavyam	-6277
ṣhṭhitam	-6278
▁abhyasū	-6279
▁adharma	-6280
▁adharmo	-6281
▁ahamsan	-6282
▁akīrtiṁ	-6283
▁anantam	-6284
▁apivikā	-6285
▁apiyogi	-6286
▁apyahaṁ	-6287
▁asmākaṁ	-6288
▁avyakta	-6289
▁avyayaṁ	-6290
▁ayuktaḥ	-6291
▁aśhnāsi	-6292
▁babhūva	-6293
▁baddhāḥ	-6294
▁bahūnāṁ	-6295
▁balavad	-6296
▁bandhāt	-6297
▁bandhūn	-6298
▁bhajati	-6299
hum	-6300
bhīr	-6301
dhīr	-6302
dṛik	-6303
jina	-6304
rthī	-6305
▁kīr	-6306
ddhyā	-6307
dhvam	-6308
layet	-6309
mapyā	-6310
ndāmi	-6311
nyevā	-6312
patim	-6313
rasaṁ	-6314
riṇaḥ	-6315
tastu	-6316
vivar	-6317
yogau	-6318
▁kusu	-6319
▁mart	-6320
artham	-6321
chittā	-6322
dharme	-6323
haraśh	-6324
lājina	-6325
māṁstu	-6326
nāśhri	-6327
sūdana	-6328
tyānām	-6329
vākave	-6330
yogaśh	-6331
yogenā	-6332
ṣhavaḥ	-6333
▁ayoga	-6334
▁kulaṁ	-6335
▁kutaḥ	-6336
▁māhāt	-6337
▁nāvam	-6338
▁phala	-6339
buddhyā	-6340
dehinām	-6341
karmāṇo	-6342
kṣhyati	-6343
pamānaḥ	-6344
sanyoga	-6345
sūkṣhma	-6346
taḥyoga	-6347
thārthī	-6348
tyaktvā	-6349
uṣhvapi	-6350
śhyatsv	-6351
śhīnava	-6352
▁akalma	-6353
▁bhedam	-6354
▁bhāvaḥ	-6355
▁kāyena	-6356
▁kīrtiṁ	-6357
▁naṣhṭā	-6358
▁soḍhum	-6359
▁soḍhuṁ	-6360
▁sādhar	-6361
▁yādṛik	-6362
ekamapyā	-6363
kāmāṁstu	-6364
tasyāvya	-6365
vivardha	-6366
▁anīśhva	-6367
▁bhavitā	-6368
▁bhītāni	-6369
▁buddher	-6370
▁buddhis	-6371
▁chaadhi	-6372
▁chaaham	-6373
▁chanamo	-6374
▁chatejo	-6375
▁chaveda	-6376
▁chhando	-6377
▁chhinna	-6378
▁chhinnā	-6379
▁chhreya	-6380
▁chintām	-6381
▁chireṇā	-6382
▁choṣhma	-6383
▁chādyam	-6384
▁chānyaḥ	-6385
▁devānāṁ	-6386
▁dharmas	-6387
▁dhyānaṁ	-6388
▁divyāni	-6389
▁doṣhair	-6390
▁doṣheṇa	-6391
▁dveṣhyo	-6392
▁dveṣhṭy	-6393
▁gandhaḥ	-6394
▁guṇatas	-6395
▁guṇānśh	-6396
▁gātrāṇi	-6397
▁harṣhaṁ	-6398
▁hastini	-6399
dīni	-6400
vasū	-6401
vādī	-6402
vāṇo	-6403
yāmy	-6404
garti	-6405
matām	-6406
nārya	-6407
ryamā	-6408
tayos	-6409
trādī	-6410
tumad	-6411
vratā	-6412
vīrya	-6413
▁bhok	-6414
▁hṛid	-6415
chitto	-6416
dīyate	-6417
krodhā	-6418
mukhaḥ	-6419
naḥtad	-6420
patram	-6421
tyajya	-6422
vyayām	-6423
▁anasū	-6424
▁vegaṁ	-6425
bhāvana	-6426
kṣhitām	-6427
kṣhiṇam	-6428
sāmvasū	-6429
tvattaḥ	-6430
tāḥkṣhi	-6431
vidhāśh	-6432
vṛikṣhā	-6433
śhuchau	-6434
ṣhyatām	-6435
▁aryamā	-6436
▁evaite	-6437
▁harati	-6438
▁kapilo	-6439
▁pakṣhi	-6440
▁rūpeṇa	-6441
▁spṛihā	-6442
▁vyathi	-6443
▁yatatā	-6444
▁yatayo	-6445
▁yataśh	-6446
bhāvanaḥ	-6447
bhūtādhi	-6448
ryaśhcha	-6449
vṛiddhaḥ	-6450
ḥvismayo	-6451
ṣhṭhatas	-6452
▁chainam	-6453
▁chaitad	-6454
▁chalama	-6455
▁guhyata	-6456
▁hetumad	-6457
▁hṛidaya	-6458
▁hṛidayā	-6459
▁hṛiṣhṭa	-6460
▁indriye	-6461
▁janmāni	-6462
▁janānāṁ	-6463
▁juhoṣhi	-6464
▁jāgarti	-6465
▁karmajā	-6466
▁karmāṇy	-6467
▁karoṣhi	-6468
▁kasmāch	-6469
▁krodhaḥ	-6470
▁kurvāṇo	-6471
▁kuśhale	-6472
▁kṛipayā	-6473
▁kṛiṣhṇo	-6474
▁kṣhaṇam	-6475
▁kṣhetrī	-6476
▁mahatīṁ	-6477
▁manavas	-6478
▁mayaiva	-6479
▁medhāvī	-6480
▁mohinīṁ	-6481
▁māmajam	-6482
▁māmakam	-6483
▁mānasam	-6484
▁mānavāḥ	-6485
▁mānuṣhe	-6486
▁nameran	-6487
▁nirguṇa	-6488
▁niryoga	-6489
▁nākṛite	-6490
▁nārīṇāṁ	-6491
▁paramāt	-6492
▁paritrā	-6493
▁pariśhu	-6494
▁parāṇyā	-6495
▁parṇāni	-6496
▁pavanaḥ	-6497
▁paśhyai	-6498
▁paśhyan	-6499
anye	-6500
lita	-6501
stvi	-6502
tāṁs	-6503
vyor	-6504
yogo	-6505
īṇām	-6506
▁tāṁ	-6507
jitvā	-6508
mānas	-6509
prīti	-6510
riṇām	-6511
vatāṁ	-6512
vaśhe	-6513
bhūtāṁ	-6514
devanā	-6515
dhātuṁ	-6516
kechid	-6517
kṣhema	-6518
mānaśh	-6519
mātraṁ	-6520
naṣhṭo	-6521
svabhā	-6522
▁deśhe	-6523
▁evāha	-6524
▁eṣhāṁ	-6525
▁keśhi	-6526
▁nāsad	-6527
▁priyā	-6528
charyaṁ	-6529
ddhātmā	-6530
kṣhasva	-6531
kṣhemaṁ	-6532
sattvaṁ	-6533
yantaśh	-6534
▁chānye	-6535
▁devada	-6536
▁hatāṁs	-6537
▁hyeṣhā	-6538
▁kiñcha	-6539
▁māyayā	-6540
▁patraṁ	-6541
▁priyaṁ	-6542
▁protaṁ	-6543
▁vajraṁ	-6544
bhāvitāḥ	-6545
bāhūdara	-6546
kṣhetraṁ	-6547
medhasām	-6548
ndriyaiḥ	-6549
putrāṇām	-6550
sarvataḥ	-6551
sarvatrā	-6552
stviṣhṭa	-6553
svabhāva	-6554
svajitvā	-6555
tavyasya	-6556
śhnutena	-6557
ṣhaṣhṭhā	-6558
▁chalita	-6559
▁dhṛitir	-6560
▁dṛiṣhṭo	-6561
▁kataran	-6562
▁paśhyed	-6563
▁prajñāṁ	-6564
▁pralaye	-6565
▁proktaṁ	-6566
▁prārtha	-6567
▁puruṣhā	-6568
▁pāpeṣhu	-6569
▁pārthaḥ	-6570
▁pūjanaṁ	-6571
▁ramanti	-6572
▁rasanaṁ	-6573
▁rājasaḥ	-6574
▁sajjate	-6575
▁sakheva	-6576
▁samādhi	-6577
▁sankhye	-6578
▁sanyama	-6579
▁sanyamā	-6580
▁sanyate	-6581
▁sanśhri	-6582
▁sarvair	-6583
▁sarvata	-6584
▁sarvesa	-6585
▁sarveye	-6586
▁satkāra	-6587
▁saukṣhm	-6588
▁saumyaṁ	-6589
▁skandaḥ	-6590
▁smarani	-6591
▁stabdhā	-6592
▁sthiram	-6593
▁sthitiṁ	-6594
▁sthitān	-6595
▁sthitāḥ	-6596
▁sthānam	-6597
▁sthāṇur	-6598
▁swargaṁ	-6599
bhok	-6600
kāmī	-6601
ptuṁ	-6602
rūpo	-6603
yajo	-6604
ṣhīṁ	-6605
▁ajo	-6606
mānān	-6607
prāpa	-6608
rṣhaṁ	-6609
▁asyā	-6610
▁pūti	-6611
▁āsti	-6612
etasyā	-6613
jñeyaṁ	-6614
prājña	-6615
pyenaṁ	-6616
rthyaṁ	-6617
rthāya	-6618
ttamāṁ	-6619
tyalpa	-6620
yajñāḥ	-6621
▁anura	-6622
▁asach	-6623
▁etāny	-6624
▁vātat	-6625
bhoktṛi	-6626
dharmān	-6627
dvegair	-6628
kurvata	-6629
pravīra	-6630
▁chāpaṁ	-6631
▁dharme	-6632
▁mahati	-6633
▁naraḥā	-6634
▁smṛiti	-6635
▁tasmān	-6636
▁triṣhu	-6637
▁vibhak	-6638
▁śhṛiṇo	-6639
bhaktāni	-6640
rūponamo	-6641
tyayāmām	-6642
vyāttāna	-6643
▁chhettā	-6644
▁chhreyo	-6645
▁jātasya	-6646
▁kṣharam	-6647
▁kṣhayaṁ	-6648
▁nādatte	-6649
▁pachāmy	-6650
▁sāgaraḥ	-6651
▁sāhankā	-6652
▁sākṣhāt	-6653
▁sāmyena	-6654
▁sānkhye	-6655
▁sāṅkhyā	-6656
▁sṛijati	-6657
▁taranti	-6658
▁tasmāch	-6659
▁tattvam	-6660
▁tenedam	-6661
▁tenāham	-6662
▁tvanyāṁ	-6663
▁tvaṁtad	-6664
▁tvidame	-6665
▁tyaktuṁ	-6666
▁tyājyam	-6667
▁tāmasaḥ	-6668
▁tāmasaṁ	-6669
▁tūṣhṇīṁ	-6670
▁tṛiptir	-6671
▁utsanna	-6672
▁uttamaḥ	-6673
▁utthitā	-6674
▁vaiśhya	-6675
▁varṣhaṁ	-6676
▁vedānāṁ	-6677
▁vibhāva	-6678
▁vidadhā	-6679
▁viduḥrā	-6680
▁vidvāns	-6681
▁vihitāḥ	-6682
▁vijñāna	-6683
▁vinadyo	-6684
▁vindate	-6685
▁vistaro	-6686
▁viṣhaya	-6687
▁viṣhṇur	-6688
▁vrajeta	-6689
▁vyaktim	-6690
▁vāchyaṁ	-6691
▁vāsānsi	-6692
▁vṛiṣhṇī	-6693
▁yajñena	-6694
▁yajñāśh	-6695
▁yatanti	-6696
▁yatanto	-6697
▁yatayaḥ	-6698
▁yatropa	-6699
drān	-6700
gīty	-6701
naso	-6702
dānsi	-6703
gīṣha	-6704
mayād	-6705
mūḍha	-6706
ndati	-6707
rāntā	-6708
vimūḍ	-6709
▁amūḍ	-6710
▁dvāv	-6711
▁rāgī	-6712
▁sakh	-6713
▁tāns	-6714
achalā	-6715
bhyaha	-6716
dhanas	-6717
kṛitvā	-6718
manaso	-6719
rāntāṁ	-6720
tmanas	-6721
yajñas	-6722
yamupa	-6723
ṣhanto	-6724
▁akṛit	-6725
▁bhīta	-6726
▁mukto	-6727
▁pāṇḍu	-6728
▁tānni	-6729
bhayena	-6730
dhṛitiṁ	-6731
kṛitvaḥ	-6732
vadbhir	-6733
yonayaḥ	-6734
▁bhītāḥ	-6735
▁guhyād	-6736
▁jyotis	-6737
▁muktaṁ	-6738
▁mṛitam	-6739
▁naṣhṭe	-6740
▁nistra	-6741
▁rudrān	-6742
bhūtātma	-6743
bhūtātmā	-6744
duḥkhair	-6745
mokṣhāya	-6746
nātmanaḥ	-6747
vimūḍhān	-6748
▁amūḍhāḥ	-6749
▁cheṣhṭā	-6750
▁dehesar	-6751
▁jigīṣha	-6752
▁kārayan	-6753
▁nirmāna	-6754
▁nistrai	-6755
▁sakhyuḥ	-6756
▁trāyate	-6757
▁tyāgīty	-6758
▁vimūḍha	-6759
▁viṣhame	-6760
▁yatātma	-6761
▁yematta	-6762
▁yenātma	-6763
▁yogasaṅ	-6764
▁yogasya	-6765
▁yoginaṁ	-6766
▁yogārūḍ	-6767
▁yuddham	-6768
▁yujyate	-6769
▁yuñjato	-6770
▁ākāśhaṁ	-6771
▁ātmaiva	-6772
▁ātmaupa	-6773
▁ātmavān	-6774
▁ātmānam	-6775
▁īśhvaro	-6776
▁śhabdaḥ	-6777
▁śhatruṁ	-6778
▁śhirasā	-6779
▁śhiṣhye	-6780
▁śhreyas	-6781
▁śhrīmad	-6782
▁śhuchir	-6783
▁ṛitūnāṁ	-6784
anudvigna	-6785
asiddhyoḥ	-6786
balārogya	-6787
bhajantya	-6788
bhakteṣhv	-6789
bhaviṣhṇu	-6790
bhayorapi	-6791
bhrāmayan	-6792
brahmaiva	-6793
brahmāgnā	-6794
charyātma	-6795
chittasya	-6796
daivatama	-6797
darśhanaḥ	-6798
darśhayām	-6799
pāpe	-6800
dhūta	-6801
gaṇāḥ	-6802
jyaśh	-6803
nuyāt	-6804
paṇya	-6805
vikra	-6806
ṅgais	-6807
divyaṁ	-6808
panthi	-6809
sāchin	-6810
tmavan	-6811
vantaḥ	-6812
vidhān	-6813
vinaya	-6814
vāptam	-6815
vāptum	-6816
▁guṇāḥ	-6817
▁tanuṁ	-6818
jāyante	-6819
phalair	-6820
tātmāno	-6821
vartino	-6822
vidhāni	-6823
yātmanā	-6824
▁adeśha	-6825
▁divyaṁ	-6826
▁jñeyaḥ	-6827
▁mahato	-6828
▁mahatā	-6829
▁manave	-6830
▁naināṁ	-6831
▁niyata	-6832
▁vadati	-6833
▁varuṇo	-6834
▁vaśhaṁ	-6835
nirdhūta	-6836
nirmuktā	-6837
pāpebhyo	-6838
timantam	-6839
vikramas	-6840
▁abhyāse	-6841
▁abravīt	-6842
▁evāpare	-6843
▁liṅgais	-6844
▁niyamam	-6845
▁niyatāḥ	-6846
▁pramāde	-6847
▁pāṇḍavā	-6848
▁pūjyaśh	-6849
▁tṛiṣhṇā	-6850
▁yaḥaghā	-6851
dbhiḥtejo	-6852
ddholokān	-6853
dharmāṇāṁ	-6854
diṣhṭamat	-6855
dvandvair	-6856
dveṣhataḥ	-6857
harṣhaṇam	-6858
hatvārtha	-6859
hunaitena	-6860
indriyāṇi	-6861
jenasahas	-6862
jendrāṇāṁ	-6863
kilbiṣhaḥ	-6864
kriyāḥpra	-6865
kṛittamaḥ	-6866
kṣhateavi	-6867
kṣhatriya	-6868
medamvyap	-6869
modbhavaṁ	-6870
myāmṛitam	-6871
māḥmāyayā	-6872
nasūyanto	-6873
nidrābhis	-6874
nmarīchir	-6875
nāśhritaḥ	-6876
panthinau	-6877
paraspara	-6878
patimsenā	-6879
paśhyanti	-6880
prasaktāḥ	-6881
prasādaye	-6882
praśhnena	-6883
rakṣhānsi	-6884
reṇātmano	-6885
riṇedeśhe	-6886
sambhavam	-6887
sammūḍhaḥ	-6888
sammūḍhāḥ	-6889
samādhinā	-6890
sasyeṣhṭā	-6891
sañchayān	-6892
swādhyāya	-6893
sīdavijñā	-6894
tamanārya	-6895
tamaphala	-6896
tandritaḥ	-6897
taujñātvā	-6898
tavyānīti	-6899
swa	-6900
bdho	-6901
anena	-6902
devas	-6903
mutra	-6904
śhaṅk	-6905
bahūny	-6906
guhyaṁ	-6907
kartre	-6908
lubdho	-6909
līyate	-6910
punaśh	-6911
yajñād	-6912
▁bījam	-6913
▁etair	-6914
▁jitaḥ	-6915
▁jitvā	-6916
▁jānan	-6917
▁kārye	-6918
▁puras	-6919
▁pātre	-6920
▁stena	-6921
ṣhṭhāyu	-6922
▁gurūna	-6923
▁iṣhṭvā	-6924
▁kariṣh	-6925
▁lubdho	-6926
▁prāpto	-6927
▁śhakyo	-6928
▁śhaśhī	-6929
pauṇḍraṁ	-6930
praṇamya	-6931
rjunayoḥ	-6932
stuvanti	-6933
śhaḥnānā	-6934
śhaṅkhaṁ	-6935
ṣhṭhānaṁ	-6936
▁jitātmā	-6937
▁jñātena	-6938
▁mārutaḥ	-6939
▁nāmutra	-6940
▁pumānśh	-6941
▁satatam	-6942
▁tāmasāḥ	-6943
▁yatasad	-6944
▁śhakyaṁ	-6945
asiddhyor	-6946
bhirakṣha	-6947
saṅgrahaḥ	-6948
taḥnirvai	-6949
titaranty	-6950
tivartate	-6951
tvenātaśh	-6952
tvānurūpā	-6953
tvāpyenaṁ	-6954
tyekatvam	-6955
tyupakārā	-6956
tītyaitān	-6957
vasthitam	-6958
vasthitaḥ	-6959
vattadvat	-6960
vaśhochas	-6961
vibhrāntā	-6962
vihārasya	-6963
vimūḍhāns	-6964
virahitaṁ	-6965
vividhāśh	-6966
viṣhṭomat	-6967
vyabhichā	-6968
vīryamana	-6969
vīryāmita	-6970
vīrānmayā	-6971
yajñādhya	-6972
yogārūḍha	-6973
yātmanyat	-6974
ātmanyeva	-6975
āśhcharya	-6976
śhaḥtasya	-6977
śhuśhruma	-6978
ṛithivyor	-6979
ṣhkarmyaṁ	-6980
ṣhkṛitiko	-6981
ṣhṭhikīma	-6982
▁abhijāto	-6983
▁adbhutaṁ	-6984
▁adhruvam	-6985
▁ahammāsā	-6986
▁ahampitr	-6987
▁ahankāro	-6988
▁akarmeti	-6989
▁akṣharād	-6990
▁akṣhayam	-6991
▁anenaiva	-6992
▁anudvega	-6993
▁anāmayam	-6994
▁apareyam	-6995
▁aparihār	-6996
▁arjunana	-6997
▁asmyekam	-6998
▁atyantaṁ	-6999
jīta	-7000
rais	-7001
aneka	-7002
dvāre	-7003
uṣhṇa	-7004
vidhe	-7005
▁asyo	-7006
▁jijī	-7007
▁tais	-7008
▁utsī	-7009
charāḥ	-7010
hasyaṁ	-7011
varjaṁ	-7012
yajñaṁ	-7013
▁sūtre	-7014
▁ṛitaṁ	-7015
bhyāham	-7016
chāryān	-7017
dvārais	-7018
jampari	-7019
janmasu	-7020
jīvitāḥ	-7021
karasya	-7022
nidhanā	-7023
rchitum	-7024
rjunaār	-7025
taḥṛite	-7026
tītyanu	-7027
yajñais	-7028
▁asakta	-7029
▁dattaṁ	-7030
▁hyahaṁ	-7031
▁hyanan	-7032
▁hyasya	-7033
▁kechid	-7034
▁kāmais	-7035
▁nabhaḥ	-7036
▁pitāsi	-7037
▁puṁsaḥ	-7038
▁sevayā	-7039
▁smṛitā	-7040
▁udārāḥ	-7041
▁yuktas	-7042
▁āyudhā	-7043
ahankāra	-7044
chhreyaḥ	-7045
gocharāḥ	-7046
kalābhiḥ	-7047
kṣhyamap	-7048
saṅgasya	-7049
tvanayos	-7050
▁asaktaṁ	-7051
▁lokeṣhu	-7052
▁mohanam	-7053
▁mohanaṁ	-7054
▁mukhyaṁ	-7055
▁nivāsaḥ	-7056
▁sthitau	-7057
▁tavādiṁ	-7058
▁yuktaiḥ	-7059
▁yuñjīta	-7060
rjunaārto	-7061
▁akṛitsna	-7062
▁avikāryo	-7063
▁avyaktam	-7064
▁avyaktād	-7065
▁avāpyate	-7066
▁aśhvinau	-7067
▁aśhvānāṁ	-7068
▁badhnāti	-7069
▁bhajanti	-7070
▁bhajasva	-7071
▁bhajatāṁ	-7072
▁bhavanti	-7073
▁bhavāpya	-7074
▁bhojanaṁ	-7075
▁bhīṣhmaṁ	-7076
▁bhūtādim	-7077
▁bhūtānya	-7078
▁brahmaṇā	-7079
▁brāhmaṇe	-7080
▁chaitāns	-7081
▁chaivadā	-7082
▁charatāṁ	-7083
▁chatvāro	-7084
▁chhakyaṁ	-7085
▁chhrutaṁ	-7086
▁chābhijā	-7087
▁chābhāva	-7088
▁chādhiko	-7089
▁chāparaṁ	-7090
▁dambhenā	-7091
▁danṣhṭrā	-7092
▁dhyāyato	-7093
▁divyānāṁ	-7094
▁duṣhṭāsu	-7095
▁dākṣhyaṁ	-7096
▁dātavyam	-7097
▁evānukam	-7098
▁gatimyaṁ	-7099
jagha	-7100
kalpo	-7101
nātyu	-7102
rthāt	-7103
sarge	-7104
īyase	-7105
▁anna	-7106
▁imau	-7107
▁neha	-7108
▁nehā	-7109
▁neme	-7110
▁pūtā	-7111
▁somo	-7112
▁tans	-7113
asakto	-7114
bhayāt	-7115
dvāram	-7116
kaḥpra	-7117
uhyati	-7118
upaiti	-7119
yataro	-7120
▁adhaḥ	-7121
▁annaṁ	-7122
▁apalā	-7123
▁hetur	-7124
▁sakhā	-7125
▁sakhī	-7126
▁sargo	-7127
▁saṅgo	-7128
▁īśham	-7129
▁śhoka	-7130
chhokam	-7131
krodhaḥ	-7132
nātanas	-7133
prasāda	-7134
rhāvari	-7135
tapanti	-7136
śheṣhva	-7137
▁adāhyo	-7138
▁evaiti	-7139
▁guhyaṁ	-7140
▁mandān	-7141
▁matāmā	-7142
▁saṅgra	-7143
▁tyajan	-7144
▁śhokaṁ	-7145
▁śhākhā	-7146
garīyase	-7147
jaghanya	-7148
prasādaḥ	-7149
saṅkalpo	-7150
▁adharmā	-7151
▁bhāvair	-7152
▁bhīṣhmā	-7153
▁naraḥso	-7154
▁prajahi	-7155
▁sakhīṁs	-7156
▁senayor	-7157
▁tasyārā	-7158
jñānāgniḥ	-7159
pāśhritya	-7160
sannyāsāt	-7161
▁dānairna	-7162
▁gurūniha	-7163
▁hantāraṁ	-7164
▁hyavaśho	-7165
▁hyātmano	-7166
▁hṛiṣhito	-7167
▁indriyas	-7168
▁ityuktas	-7169
▁janmanām	-7170
▁jantavaḥ	-7171
▁jijñāsur	-7172
▁jñānasya	-7173
▁jñānānāṁ	-7174
▁jñāsyasi	-7175
▁kachchin	-7176
▁kadāchin	-7177
▁kariṣhye	-7178
▁karmaiva	-7179
▁kartāham	-7180
▁kartāraṁ	-7181
▁kaumāraṁ	-7182
▁kledayan	-7183
▁kuruṣhva	-7184
▁kāleneha	-7185
▁kālānala	-7186
▁kārpaṇya	-7187
▁kṛipaṇāḥ	-7188
▁kṛitvāpi	-7189
▁kṛitānte	-7190
▁kṣhayāya	-7191
▁kṣhetram	-7192
▁kṣhipraṁ	-7193
▁kṣhātraṁ	-7194
▁manuṣhya	-7195
▁marutaśh	-7196
▁mayādhya	-7197
▁muhyanti	-7198
▁muktasya	-7199
drās	-7200
iśwva	-7201
rajaḥ	-7202
▁syuḥ	-7203
▁tāta	-7204
bhāsas	-7205
dhūnāṁ	-7206
mohena	-7207
sādhur	-7208
yonaya	-7209
▁darpo	-7210
▁sāmye	-7211
▁toyaṁ	-7212
▁vimat	-7213
tathāpi	-7214
varṇyaṁ	-7215
vāsayām	-7216
yamānam	-7217
śhīrṣho	-7218
ṣhaḥsuk	-7219
▁achalo	-7220
▁bhāsas	-7221
▁daivīṁ	-7222
▁dhīraṁ	-7223
▁ihaiva	-7224
▁martya	-7225
▁prayat	-7226
▁pūrvam	-7227
▁vachas	-7228
▁vaśham	-7229
▁śhūdra	-7230
chchhann	-7231
hitāḥtat	-7232
iśwvarya	-7233
karmāṇaḥ	-7234
rjunamām	-7235
sannyāsa	-7236
sthitaḥa	-7237
tiñjayaḥ	-7238
vāmyātma	-7239
▁acharaṁ	-7240
▁antavat	-7241
▁choktaṁ	-7242
▁dveṣhaḥ	-7243
▁ghrāṇam	-7244
▁jagatmo	-7245
▁karaṇaṁ	-7246
▁kulasya	-7247
▁mṛityur	-7248
▁mṛityuḥ	-7249
▁mṛityuṁ	-7250
▁naraiḥa	-7251
▁pūrvaiḥ	-7252
▁viduḥsa	-7253
▁vindāmi	-7254
▁śhūdrās	-7255
chchhanto	-7256
chchhanty	-7257
dadhmatuḥ	-7258
samāpyate	-7259
śhnatastu	-7260
▁anantaśh	-7261
▁bhavamad	-7262
▁duḥkhena	-7263
▁kṣharaśh	-7264
▁mānuṣhīṁ	-7265
▁mṛityuśh	-7266
▁naraḥsva	-7267
▁nendriyā	-7268
▁nidhanaṁ	-7269
▁nidhānaṁ	-7270
▁nigrahaḥ	-7271
▁nigrahaṁ	-7272
▁niragnir	-7273
▁nirdeśho	-7274
▁nirguṇaṁ	-7275
▁nirvedaṁ	-7276
▁nityasyo	-7277
▁nodvijet	-7278
▁nābhaktā	-7279
▁nāśhitam	-7280
▁parjanyo	-7281
▁paśhyann	-7282
▁paśhyato	-7283
▁paṇavāna	-7284
▁prabhavo	-7285
▁pralayas	-7286
▁pralayaḥ	-7287
▁pramukhe	-7288
▁pramāthi	-7289
▁pramāthī	-7290
▁pratiyot	-7291
▁pravarti	-7292
▁priyaḥye	-7293
▁proktāni	-7294
▁prāpyate	-7295
▁prāṇināṁ	-7296
▁puruṣhas	-7297
▁puruṣhau	-7298
▁pārthānu	-7299
ddīp	-7300
▁akle	-7301
doṣham	-7302
jyotir	-7303
kāreṇa	-7304
nāśhāt	-7305
tairha	-7306
yopeto	-7307
śhreyo	-7308
▁anādī	-7309
buddhau	-7310
grahāya	-7311
nimitta	-7312
yatholb	-7313
śhatair	-7314
śhvinau	-7315
śhyatia	-7316
▁dadāsi	-7317
▁daivaṁ	-7318
▁dehino	-7319
▁dhṛity	-7320
▁ghoram	-7321
▁malena	-7322
▁suhṛin	-7323
▁trayaṁ	-7324
▁vākyaṁ	-7325
▁āsīnam	-7326
ddīptāna	-7327
eśhvaram	-7328
jaṅgamam	-7329
kṣhudraṁ	-7330
puruṣhaḥ	-7331
sarveṣhu	-7332
saṅkaraḥ	-7333
tyartham	-7334
śhyantaṁ	-7335
▁akledyo	-7336
▁asukhaṁ	-7337
▁aśhakto	-7338
▁dehināṁ	-7339
▁labhyas	-7340
▁mamātmā	-7341
▁mukhāni	-7342
▁nirmamo	-7343
▁nobhaya	-7344
▁nābhāvo	-7345
▁vadanti	-7346
▁varuṇaḥ	-7347
▁śhāntiṁ	-7348
bhaviṣhyā	-7349
bhālābhau	-7350
buddhayas	-7351
duṣhkṛite	-7352
pravṛitto	-7353
sanśhayam	-7354
śhāntātmā	-7355
▁bibharty	-7356
▁kriyante	-7357
▁mānuṣhaṁ	-7358
▁nirmalaṁ	-7359
▁pratyanī	-7360
▁putrasya	-7361
▁pāvakaśh	-7362
▁pāṇḍavas	-7363
▁pāṇḍavaḥ	-7364
▁rahasyaṁ	-7365
▁sadṛiśhī	-7366
▁sajjante	-7367
▁samatvaṁ	-7368
▁sammohaḥ	-7369
▁samādhau	-7370
▁sannyasa	-7371
▁sannyāsī	-7372
▁sanśhita	-7373
▁sapatnān	-7374
▁sevatesa	-7375
▁stabdhaḥ	-7376
▁sthāvara	-7377
▁sukhamsa	-7378
▁sukhasya	-7379
▁sukṛitaṁ	-7380
▁sulabhaḥ	-7381
▁surendra	-7382
▁svabhāvo	-7383
▁sādhūnāṁ	-7384
▁sānkhyaṁ	-7385
▁sāttviko	-7386
▁sṛiṣhṭvā	-7387
▁tapantam	-7388
▁tapobhir	-7389
▁tasyaiva	-7390
▁tasyācha	-7391
▁tathāham	-7392
▁tathāmad	-7393
▁tathātmā	-7394
▁tatraivā	-7395
▁tattvato	-7396
▁tatyajño	-7397
▁tuṣhyati	-7398
▁tvananya	-7399
asad	-7400
bhīḥ	-7401
mohau	-7402
asapat	-7403
bhṛitā	-7404
dyutim	-7405
grāhān	-7406
maśhru	-7407
siyach	-7408
tumulo	-7409
▁muhur	-7410
▁muhuḥ	-7411
▁nayet	-7412
▁pitṛi	-7413
▁prīti	-7414
bhṛitām	-7415
bhṛitāṁ	-7416
charaty	-7417
karālaṁ	-7418
manasaṁ	-7419
nyoloka	-7420
prāptir	-7421
rūḍhāni	-7422
tṛitvaṁ	-7423
vikāram	-7424
vikāraḥ	-7425
▁bhūmir	-7426
▁dambha	-7427
▁dambho	-7428
▁iṣhṭaḥ	-7429
▁jīvati	-7430
▁mānasā	-7431
▁mūlāny	-7432
▁pradvi	-7433
▁putrān	-7434
▁vedāśh	-7435
dbhavama	-7436
haitukam	-7437
madattis	-7438
ndramasi	-7439
sanyogaṁ	-7440
tyāgasya	-7441
▁avekṣhe	-7442
▁bhoktuṁ	-7443
▁devānām	-7444
▁janayed	-7445
▁narāṇāṁ	-7446
▁naṣhṭaḥ	-7447
▁sattvāt	-7448
▁smarati	-7449
▁tenaiva	-7450
▁tuṣhṭaḥ	-7451
▁udāsīno	-7452
▁vedāhaṁ	-7453
▁āsthāya	-7454
dastumulo	-7455
lāḥadhaśh	-7456
nsasiyach	-7457
urudyamya	-7458
vibhramaḥ	-7459
▁ananyayā	-7460
▁bhīṣhmam	-7461
▁bhūteśha	-7462
▁chadaivo	-7463
▁dhātāhaṁ	-7464
▁gamyatee	-7465
▁nātmānam	-7466
▁prayukto	-7467
▁pāvanāni	-7468
▁sukheṣhu	-7469
▁tattvena	-7470
▁tvevāhaṁ	-7471
▁tānbravī	-7472
▁uddiśhya	-7473
▁upāyataḥ	-7474
▁uragānśh	-7475
▁uvāchaye	-7476
▁uvāchayo	-7477
▁vadanair	-7478
▁vaḥparas	-7479
▁vibhūter	-7480
▁vidyānāṁ	-7481
▁vijānīto	-7482
▁vimuktaḥ	-7483
▁vimuktāḥ	-7484
▁vimuñcha	-7485
▁visargaḥ	-7486
▁vistāraṁ	-7487
▁vividhāḥ	-7488
▁viśhālaṁ	-7489
▁vyāharan	-7490
▁vṛijinaṁ	-7491
▁yajñeṣhu	-7492
▁yenaikaṁ	-7493
▁yoginaśh	-7494
▁yoktavyo	-7495
▁yuddhāch	-7496
▁yuktātmā	-7497
▁ādhatsva	-7498
▁ādyaṁyan	-7499
mūm	-7500
bhyut	-7501
meyāṁ	-7502
yukte	-7503
▁apsu	-7504
▁etan	-7505
▁ādau	-7506
▁āste	-7507
janaśh	-7508
mayair	-7509
sanjñi	-7510
yasyāṁ	-7511
śhmala	-7512
śhokān	-7513
ūrdhva	-7514
ṇyādau	-7515
▁annād	-7516
▁anyat	-7517
▁bāhya	-7518
▁bālāḥ	-7519
▁dhenū	-7520
▁etach	-7521
▁etaiḥ	-7522
▁puṇye	-7523
▁yajño	-7524
rajasaṁ	-7525
rāchāro	-7526
saṅkara	-7527
tadahaṁ	-7528
yoḥguṇā	-7529
ṣhyāmaḥ	-7530
ṣhūdana	-7531
▁apātre	-7532
▁apāvṛi	-7533
▁atītya	-7534
▁chamūm	-7535
▁dīptam	-7536
▁kuryāṁ	-7537
▁maunam	-7538
▁nānyat	-7539
▁rajaso	-7540
▁sūyate	-7541
kaunteya	-7542
▁asatyam	-7543
▁jayeyuḥ	-7544
▁kurvann	-7545
▁mokṣhaṁ	-7546
▁phalāni	-7547
▁sarasām	-7548
▁siddhir	-7549
▁vimūḍho	-7550
▁īśhvara	-7551
▁śhrutau	-7552
▁śhuchau	-7553
durāchāro	-7554
gatāgataṁ	-7555
kartṛitve	-7556
niṣhūdana	-7557
sanjñitaḥ	-7558
yairyukte	-7559
▁darśhaya	-7560
▁dhenūnām	-7561
▁kaśhmala	-7562
▁sammohāt	-7563
▁sampadam	-7564
▁sthitaśh	-7565
▁ākhyātaṁ	-7566
▁ātiṣhṭho	-7567
▁āvartino	-7568
▁śhakyase	-7569
▁śharaṇam	-7570
▁śhaṅkhau	-7571
▁śhaṅkhaṁ	-7572
▁śhrutvān	-7573
▁śhārīraṁ	-7574
▁śhāstram	-7575
agatāsūnśh	-7576
akarmaṇaśh	-7577
bhibhavaty	-7578
bhāksādhur	-7579
bhānidiśho	-7580
chchhritaṁ	-7581
chetāḥyach	-7582
chhandānsi	-7583
chhraddhaḥ	-7584
daurbalyaṁ	-7585
daḥgandhar	-7586
ddīptānalā	-7587
dhanastadā	-7588
eśhvaradra	-7589
guhyatamaṁ	-7590
guṇābhāsaṁ	-7591
hetunānena	-7592
indriyāṇāṁ	-7593
iḥbhuñjate	-7594
jāsāttvikī	-7595
karmasutān	-7596
karmaṇāmte	-7597
karāvubhau	-7598
kriyāḥdāna	-7599
mayī	-7600
hnavī	-7601
kārye	-7602
ryāṇi	-7603
yotsā	-7604
ñjīya	-7605
jānīhi	-7606
myānāṁ	-7607
pradāḥ	-7608
viśhve	-7609
▁puṇyo	-7610
▁vasūn	-7611
▁īdṛiṅ	-7612
dharmyā	-7613
kāryate	-7614
▁devāns	-7615
▁divyau	-7616
▁prāhus	-7617
▁puṇyam	-7618
▁puṇyaṁ	-7619
▁yajñāj	-7620
▁yogāch	-7621
▁āsanam	-7622
▁āsurīm	-7623
▁ātmany	-7624
bodhasya	-7625
hoṣhaṇam	-7626
kampitum	-7627
mitrāryu	-7628
pariṇāme	-7629
rtayanto	-7630
āśhrayaḥ	-7631
▁bahavaḥ	-7632
▁jāhnavī	-7633
▁naśhyat	-7634
▁nigṛihī	-7635
▁nāgānāṁ	-7636
▁pratāpa	-7637
▁puṣhpaṁ	-7638
▁sukṛita	-7639
▁āsthito	-7640
chetasāni	-7641
pūjārthaṁ	-7642
sambhavān	-7643
yotsādanā	-7644
āśhrayaḥa	-7645
▁anusmara	-7646
▁aśhāśhva	-7647
▁bhūtejyā	-7648
▁durgatiṁ	-7649
▁dvandvaḥ	-7650
▁gṛihyate	-7651
▁kāraṇāni	-7652
▁manyante	-7653
▁paṇḍitaṁ	-7654
▁tatamsva	-7655
▁vijñānam	-7656
▁āsthitaḥ	-7657
▁āsurāḥna	-7658
▁śhrotraṁ	-7659
khilamyach	-7660
kṣhetreṣhu	-7661
madhyastha	-7662
madhyāntam	-7663
maswargyam	-7664
mayyarpita	-7665
mānasaḥśhā	-7666
namabravīt	-7667
nivāsatvam	-7668
niḥspṛihaḥ	-7669
nubandhīni	-7670
nīndriyāṇi	-7671
panārthāya	-7672
parigrahaḥ	-7673
prabhavair	-7674
pratiṣhṭho	-7675
pratyakṣhā	-7676
pravṛiddhā	-7677
pṛithivyor	-7678
reṇānalena	-7679
rjunakarme	-7680
sahasrasya	-7681
samanvitaḥ	-7682
samanvitāḥ	-7683
samutthena	-7684
samāviṣhṭo	-7685
samāvṛitāḥ	-7686
samāyuktaḥ	-7687
sansiddhas	-7688
sansiddhiṁ	-7689
sanśhayamā	-7690
saraḥsamaḥ	-7691
spṛihaḥnai	-7692
tamasaktaṁ	-7693
tamyatanto	-7694
tapaskyāya	-7695
tavyaṁtvam	-7696
vagachchha	-7697
vināśhinaṁ	-7698
vivarjitam	-7699
tyekā	-7700
tyete	-7701
▁pure	-7702
juṣhṭa	-7703
tteśho	-7704
tṛipto	-7705
viśhāṁ	-7706
bhavitā	-7707
charyam	-7708
dehikam	-7709
hetavaḥ	-7710
kriyāśh	-7711
mokṣhaṁ	-7712
samsāra	-7713
tīhaiva	-7714
vettāsi	-7715
viśhāla	-7716
vriyate	-7717
▁adhaśh	-7718
▁amṛito	-7719
▁bhedaṁ	-7720
▁budhāḥ	-7721
▁ityekā	-7722
▁iṣhṭaṁ	-7723
▁lābhaṁ	-7724
▁pāpena	-7725
▁pārtho	-7726
▁rahasi	-7727
▁sāmnāṁ	-7728
▁tvimāṁ	-7729
▁vitatā	-7730
▁yodhāḥ	-7731
▁āhārāḥ	-7732
bhyasūya	-7733
iṣhubhiḥ	-7734
kṛityaśh	-7735
nāśhanam	-7736
saṁvādam	-7737
vartmani	-7738
yantyete	-7739
yathāvat	-7740
yogāgnau	-7741
ṣhṭānnaṁ	-7742
▁avadhyo	-7743
▁chaetad	-7744
▁chittam	-7745
▁chāgnau	-7746
▁chānyad	-7747
▁deveṣhu	-7748
▁ekasmin	-7749
▁hriyate	-7750
▁marutas	-7751
▁marutām	-7752
▁mriyate	-7753
▁nihatāḥ	-7754
▁patanti	-7755
▁pavatām	-7756
▁yayedaṁ	-7757
▁yādasām	-7758
anantaram	-7759
brahmāṇam	-7760
durlabhaḥ	-7761
pajuhvati	-7762
santuṣhṭo	-7763
tāmdharma	-7764
tṛiptātmā	-7765
yasyārthe	-7766
▁achintyo	-7767
▁apratima	-7768
▁athaitad	-7769
▁chānagha	-7770
▁dambhena	-7771
▁ijyateya	-7772
▁kṛiṣhṇāt	-7773
▁mṛitasya	-7774
▁sṛiṣhṭaṁ	-7775
▁vaiśhyās	-7776
▁vitteśho	-7777
bandhanaiḥ	-7778
darśhibhiḥ	-7779
netraṁmahā	-7780
prabhāvaśh	-7781
viyuktānāṁ	-7782
viśhāradāḥ	-7783
vratāḥnama	-7784
vṛikṣhāṇāṁ	-7785
yakartāram	-7786
yamīyasyāṁ	-7787
yanamdānam	-7788
yaḥstrīṣhu	-7789
yogeśhvara	-7790
yogeśhvaro	-7791
yutsṛijāmi	-7792
yānvitāḥte	-7793
śhraddhayā	-7794
śhveśhvara	-7795
▁abhirataḥ	-7796
▁abhyanunā	-7797
▁abhāṣhata	-7798
▁ahankāram	-7799
arpaḥ	-7800
bāhuṁ	-7801
sūtrī	-7802
vapur	-7803
▁mith	-7804
avaraṁ	-7805
kleśha	-7806
kuryād	-7807
sargau	-7808
īhante	-7809
▁havir	-7810
▁hetuḥ	-7811
▁kurūn	-7812
▁chakra	-7813
▁mithyā	-7814
▁sāmāsi	-7815
▁tasyāṁ	-7816
evātmanā	-7817
pāpmānaṁ	-7818
ttamamsa	-7819
▁abhyāsa	-7820
▁anaśhna	-7821
▁chapata	-7822
▁garbhas	-7823
▁karmasv	-7824
▁karteti	-7825
▁kathaya	-7826
▁māmakāḥ	-7827
▁pautrān	-7828
▁pūrvair	-7829
▁tapaḥsu	-7830
▁tavārju	-7831
▁vyūḍhāṁ	-7832
▁yajanto	-7833
ayuktasya	-7834
prochyate	-7835
▁chhrutvā	-7836
▁chhāntir	-7837
▁gṛiṇanti	-7838
▁jñāninas	-7839
▁maharṣhi	-7840
▁mādhavaḥ	-7841
▁phalākāṅ	-7842
▁pārthāya	-7843
▁siddhāva	-7844
▁tatraika	-7845
▁tyajetsa	-7846
▁śhubhāñl	-7847
niśhchitam	-7848
pūrvakamda	-7849
▁ahankāraṁ	-7850
▁ahankārān	-7851
▁aiśhwaraṁ	-7852
▁ajānantaḥ	-7853
▁akarmaṇaḥ	-7854
▁akartāraṁ	-7855
▁akuśhalaṁ	-7856
▁anantaram	-7857
▁anasūyaśh	-7858
▁antavanta	-7859
▁anupaśhya	-7860
▁anuttamam	-7861
▁anāditvān	-7862
▁asamartho	-7863
▁avajñātaṁ	-7864
▁avijñeyaṁ	-7865
▁avyayamvi	-7866
▁bhaktyupa	-7867
▁bhavantam	-7868
▁bhavantaḥ	-7869
▁bhoktāraṁ	-7870
▁bhuṅkṣhva	-7871
▁bhāvanāna	-7872
▁brahmaṇas	-7873
▁brahmaṇaḥ	-7874
▁brahmārpa	-7875
▁brāhmaṇāḥ	-7876
▁chaivāham	-7877
▁chaivāsmi	-7878
▁chaivātra	-7879
▁chaivāyaṁ	-7880
▁chajñānaṁ	-7881
▁chakarṇaṁ	-7882
▁chakriṇaṁ	-7883
▁chanityaḥ	-7884
▁chatasmād	-7885
▁chendriya	-7886
▁cheṣhṭate	-7887
▁chottamaḥ	-7888
▁chākriyaḥ	-7889
▁chākīrtir	-7890
▁chākṣhara	-7891
▁chātmaniī	-7892
▁chāvyayam	-7893
▁darśhayām	-7894
▁daśhaikaṁ	-7895
▁dharmātmā	-7896
▁dhārayāmy	-7897
▁draṣhṭānu	-7898
▁duḥkheṣhv	-7899
mūrte	-7900
▁dūra	-7901
▁tūdd	-7902
dityān	-7903
rūpeṇa	-7904
siṣhṇu	-7905
striyo	-7906
▁ojasā	-7907
▁raṇād	-7908
▁teṣhū	-7909
▁ubhāv	-7910
bhāvāyo	-7911
dvārāṇi	-7912
maraṇād	-7913
munīnām	-7914
nirataḥ	-7915
prāptam	-7916
saktaśh	-7917
vagamaṁ	-7918
ātmānas	-7919
▁bhinnā	-7920
▁dadāmi	-7921
▁daivam	-7922
▁dvāraṁ	-7923
▁hinsām	-7924
▁kleśho	-7925
▁matamā	-7926
▁moghaṁ	-7927
▁tvetad	-7928
anāmayam	-7929
kilbiṣha	-7930
prasanna	-7931
sandehaḥ	-7932
sanjñair	-7933
vināśham	-7934
▁aśhnāmi	-7935
▁haranti	-7936
▁jñānāsi	-7937
▁jīrṇāni	-7938
▁namasya	-7939
▁niḥśhre	-7940
▁saṅkaro	-7941
▁saṅkhye	-7942
▁svasyāḥ	-7943
▁tvaghaṁ	-7944
▁vāsavaḥ	-7945
▁yatīnāṁ	-7946
chchhedyo	-7947
duṣhkaram	-7948
kāmārthān	-7949
kārataḥna	-7950
mṛiṣhīnśh	-7951
prajahāti	-7952
prajñasya	-7953
ṇāmavāpya	-7954
▁ahamjayo	-7955
▁chhettum	-7956
▁chāchāro	-7957
▁jahātīha	-7958
a	-7959
▁	-7960
h	-7961
t	-7962
ā	-7963
i	-7964
r	-7965
n	-7966
y	-7967
m	-7968
v	-7969
s	-7970
d	-7971
e	-7972
u	-7973
k	-7974
p	-7975
-	-7976
ṁ	-7977
o	-7978
b	-7979
c	-7980
ḥ	-7981
ś	-7982
ṣ	-7983
j	-7984
g	-7985
ṇ	-7986
ī	-7987
ṛ	-7988
l	-7989
ū	-7990
ñ	-7991
’	-7992
ṭ	-7993
ṅ	-7994
ḍ	-7995
w	-7996
